[PAD] 1
[1] 1
[2] 1
[3] 1
[unused4] 1
[unused5] 1
[unused6] 1
[unused7] 1
[unused8] 1
[unused9] 1
[unused10] 1
[unused11] 1
[unused12] 1
[unused13] 1
[unused14] 1
[unused15] 1
[unused16] 1
[unused17] 1
[unused18] 1
[unused19] 1
[unused20] 1
[unused21] 1
[unused22] 1
[unused23] 1
[unused24] 1
[unused25] 1
[unused26] 1
[unused27] 1
[unused28] 1
[unused29] 1
[unused30] 1
[unused31] 1
[unused32] 1
[unused33] 1
[unused34] 1
[unused35] 1
[unused36] 1
[unused37] 1
[unused38] 1
[unused39] 1
[unused40] 1
[unused41] 1
[unused42] 1
[unused43] 1
[unused44] 1
[unused45] 1
[unused46] 1
[unused47] 1
[unused48] 1
[unused49] 1
[unused50] 1
[unused51] 1
[unused52] 1
[unused53] 1
[unused54] 1
[unused55] 1
[unused56] 1
[unused57] 1
[unused58] 1
[unused59] 1
[unused60] 1
[unused61] 1
[unused62] 1
[unused63] 1
[unused64] 1
[unused65] 1
[unused66] 1
[unused67] 1
[unused68] 1
[unused69] 1
[unused70] 1
[unused71] 1
[unused72] 1
[unused73] 1
[unused74] 1
[unused75] 1
[unused76] 1
[unused77] 1
[unused78] 1
[unused79] 1
[unused80] 1
[unused81] 1
[unused82] 1
[unused83] 1
[unused84] 1
[unused85] 1
[unused86] 1
[unused87] 1
[unused88] 1
[unused89] 1
[unused90] 1
[unused91] 1
[unused92] 1
[unused93] 1
[unused94] 1
[unused95] 1
[unused96] 1
[unused97] 1
[unused98] 1
[unused99] 1
[UNK] 1
[CLS] 1
[SEP] 1
[MASK] 1
[unused100] 1
[unused101] 1
! 1
" 1
# 1
$ 1
% 1
& 1
' 1
( 1
) 1
* 1
+ 1
, 1
- 1
. 1
/ 1
0 1
1 1
2 1
3 1
4 1
5 1
6 1
7 1
8 1
9 1
: 1
; 1
< 1
= 1
> 1
? 1
@ 1
A 1
B 1
C 1
D 1
E 1
F 1
G 1
H 1
I 1
J 1
K 1
L 1
M 1
N 1
O 1
P 1
Q 1
R 1
S 1
T 1
U 1
V 1
W 1
X 1
Y 1
Z 1
[ 1
\ 1
] 1
^ 1
_ 1
` 1
a 1
b 1
c 1
d 1
e 1
f 1
g 1
h 1
i 1
j 1
k 1
l 1
m 1
n 1
o 1
p 1
q 1
r 1
s 1
t 1
u 1
v 1
w 1
x 1
y 1
z 1
{ 1
| 1
} 1
~ 1
¡ 1
¢ 1
£ 1
¥ 1
§ 1
¨ 1
© 1
ª 1
« 1
¬ 1
® 1
° 1
± 1
² 1
³ 1
´ 1
µ 1
¶ 1
· 1
¹ 1
º 1
» 1
¼ 1
½ 1
¾ 1
¿ 1
À 1
Á 1
Â 1
Ä 1
Å 1
Æ 1
Ç 1
È 1
É 1
Í 1
Î 1
Ñ 1
Ó 1
Ö 1
× 1
Ø 1
Ú 1
Ü 1
Þ 1
ß 1
à 1
á 1
â 1
ã 1
ä 1
å 1
æ 1
ç 1
è 1
é 1
ê 1
ë 1
ì 1
í 1
î 1
ï 1
ð 1
ñ 1
ò 1
ó 1
ô 1
õ 1
ö 1
÷ 1
ø 1
ù 1
ú 1
û 1
ü 1
ý 1
þ 1
ÿ 1
Ā 1
ā 1
ă 1
ą 1
Ć 1
ć 1
Č 1
č 1
ď 1
Đ 1
đ 1
ē 1
ė 1
ę 1
ě 1
ğ 1
ġ 1
Ħ 1
ħ 1
ĩ 1
Ī 1
ī 1
İ 1
ı 1
ļ 1
Ľ 1
ľ 1
Ł 1
ł 1
ń 1
ņ 1
ň 1
ŋ 1
Ō 1
ō 1
ŏ 1
ő 1
Œ 1
œ 1
ř 1
Ś 1
ś 1
Ş 1
ş 1
Š 1
š 1
Ţ 1
ţ 1
ť 1
ũ 1
ū 1
ŭ 1
ů 1
ű 1
ų 1
ŵ 1
ŷ 1
ź 1
Ż 1
ż 1
Ž 1
ž 1
Ə 1
ƒ 1
ơ 1
ư 1
ǎ 1
ǐ 1
ǒ 1
ǔ 1
ǫ 1
Ș 1
ș 1
Ț 1
ț 1
ɐ 1
ɑ 1
ɔ 1
ɕ 1
ə 1
ɛ 1
ɡ 1
ɣ 1
ɨ 1
ɪ 1
ɲ 1
ɾ 1
ʀ 1
ʁ 1
ʂ 1
ʃ 1
ʊ 1
ʋ 1
ʌ 1
ʐ 1
ʑ 1
ʒ 1
ʔ 1
ʰ 1
ʲ 1
ʳ 1
ʷ 1
ʻ 1
ʼ 1
ʾ 1
ʿ 1
ˈ 1
ː 1
ˡ 1
ˢ 1
ˣ 1
́ 1
̃ 1
̍ 1
̯ 1
͡ 1
Α 1
Β 1
Γ 1
Δ 1
Ε 1
Η 1
Θ 1
Ι 1
Κ 1
Λ 1
Μ 1
Ν 1
Ο 1
Π 1
Σ 1
Τ 1
Φ 1
Χ 1
Ψ 1
Ω 1
ά 1
έ 1
ή 1
ί 1
α 1
β 1
γ 1
δ 1
ε 1
ζ 1
η 1
θ 1
ι 1
κ 1
λ 1
μ 1
ν 1
ξ 1
ο 1
π 1
ρ 1
ς 1
σ 1
τ 1
υ 1
φ 1
χ 1
ψ 1
ω 1
ό 1
ύ 1
ώ 1
І 1
Ј 1
А 1
Б 1
В 1
Г 1
Д 1
Е 1
Ж 1
З 1
И 1
К 1
Л 1
М 1
Н 1
О 1
П 1
Р 1
С 1
Т 1
У 1
Ф 1
Х 1
Ц 1
Ч 1
Ш 1
Э 1
Ю 1
Я 1
а 1
б 1
в 1
г 1
д 1
е 1
ж 1
з 1
и 1
й 1
к 1
л 1
м 1
н 1
о 1
п 1
р 1
с 1
т 1
у 1
ф 1
х 1
ц 1
ч 1
ш 1
щ 1
ъ 1
ы 1
ь 1
э 1
ю 1
я 1
ё 1
і 1
ї 1
ј 1
њ 1
ћ 1
Ա 1
Հ 1
ա 1
ե 1
ի 1
կ 1
մ 1
յ 1
ն 1
ո 1
ս 1
տ 1
ր 1
ւ 1
ְ 1
ִ 1
ֵ 1
ֶ 1
ַ 1
ָ 1
ֹ 1
ּ 1
א 1
ב 1
ג 1
ד 1
ה 1
ו 1
ז 1
ח 1
ט 1
י 1
כ 1
ל 1
ם 1
מ 1
ן 1
נ 1
ס 1
ע 1
פ 1
צ 1
ק 1
ר 1
ש 1
ת 1
، 1
ء 1
آ 1
أ 1
إ 1
ئ 1
ا 1
ب 1
ة 1
ت 1
ث 1
ج 1
ح 1
خ 1
د 1
ذ 1
ر 1
ز 1
س 1
ش 1
ص 1
ض 1
ط 1
ظ 1
ع 1
غ 1
ف 1
ق 1
ك 1
ل 1
م 1
ن 1
ه 1
و 1
ى 1
ي 1
َ 1
ِ 1
ٹ 1
پ 1
چ 1
ک 1
گ 1
ہ 1
ی 1
ے 1
ं 1
आ 1
क 1
ग 1
च 1
ज 1
ण 1
त 1
द 1
ध 1
न 1
प 1
ब 1
भ 1
म 1
य 1
र 1
ल 1
व 1
श 1
ष 1
स 1
ह 1
ा 1
ि 1
ी 1
ु 1
े 1
ो 1
् 1
। 1
॥ 1
আ 1
ই 1
এ 1
ও 1
ক 1
খ 1
গ 1
চ 1
ছ 1
জ 1
ট 1
ত 1
থ 1
দ 1
ধ 1
ন 1
প 1
ব 1
ম 1
য 1
র 1
ল 1
শ 1
স 1
হ 1
় 1
া 1
ি 1
ী 1
ু 1
ে 1
ো 1
্ 1
য় 1
க 1
த 1
ப 1
ம 1
ய 1
ர 1
ல 1
வ 1
ா 1
ி 1
ு 1
் 1
ร 1
་ 1
ག 1
ང 1
ད 1
ན 1
བ 1
མ 1
ར 1
ལ 1
ས 1
ི 1
ུ 1
ེ 1
ོ 1
ა 1
ე 1
ი 1
ლ 1
ნ 1
ო 1
რ 1
ს 1
ᴬ 1
ᴵ 1
ᵀ 1
ᵃ 1
ᵇ 1
ᵈ 1
ᵉ 1
ᵍ 1
ᵏ 1
ᵐ 1
ᵒ 1
ᵖ 1
ᵗ 1
ᵘ 1
ᵢ 1
ᵣ 1
ᵤ 1
ᵥ 1
ᶜ 1
ᶠ 1
ḍ 1
Ḥ 1
ḥ 1
Ḩ 1
ḩ 1
ḳ 1
ṃ 1
ṅ 1
ṇ 1
ṛ 1
ṣ 1
ṭ 1
ạ 1
ả 1
ấ 1
ầ 1
ẩ 1
ậ 1
ắ 1
ế 1
ề 1
ể 1
ễ 1
ệ 1
ị 1
ọ 1
ố 1
ồ 1
ổ 1
ộ 1
ớ 1
ờ 1
ợ 1
ụ 1
ủ 1
ứ 1
ừ 1
ử 1
ữ 1
ự 1
ỳ 1
ỹ 1
ἀ 1
ἐ 1
ὁ 1
ὐ 1
ὰ 1
ὶ 1
ὸ 1
ῆ 1
ῖ 1
ῦ 1
ῶ 1
‐ 1
‑ 1
‒ 1
– 1
— 1
― 1
‖ 1
‘ 1
’ 1
‚ 1
“ 1
” 1
„ 1
† 1
‡ 1
• 1
… 1
‰ 1
′ 1
″ 1
⁄ 1
⁰ 1
ⁱ 1
⁴ 1
⁵ 1
⁶ 1
⁷ 1
⁸ 1
⁹ 1
⁺ 1
⁻ 1
ⁿ 1
₀ 1
₁ 1
₂ 1
₃ 1
₄ 1
₅ 1
₆ 1
₇ 1
₈ 1
₉ 1
₊ 1
₍ 1
₎ 1
ₐ 1
ₑ 1
ₒ 1
ₓ 1
ₕ 1
ₖ 1
ₘ 1
ₙ 1
ₚ 1
ₛ 1
ₜ 1
₤ 1
€ 1
₱ 1
₹ 1
ℓ 1
№ 1
ℝ 1
⅓ 1
← 1
↑ 1
→ 1
↔ 1
⇌ 1
⇒ 1
∂ 1
∈ 1
− 1
∗ 1
∘ 1
√ 1
∞ 1
∧ 1
∨ 1
∩ 1
∪ 1
≈ 1
≠ 1
≡ 1
≤ 1
≥ 1
⊂ 1
⊆ 1
⊕ 1
⋅ 1
─ 1
│ 1
■ 1
● 1
★ 1
☆ 1
☉ 1
♠ 1
♣ 1
♥ 1
♦ 1
♭ 1
♯ 1
⟨ 1
⟩ 1
ⱼ 1
、 1
。 1
《 1
》 1
「 1
」 1
『 1
』 1
〜 1
い 1
う 1
え 1
お 1
か 1
き 1
く 1
け 1
こ 1
さ 1
し 1
す 1
せ 1
そ 1
た 1
ち 1
つ 1
て 1
と 1
な 1
に 1
の 1
は 1
ひ 1
ま 1
み 1
む 1
め 1
も 1
や 1
ゆ 1
よ 1
ら 1
り 1
る 1
れ 1
ん 1
ア 1
ィ 1
イ 1
ウ 1
エ 1
オ 1
カ 1
ガ 1
キ 1
ク 1
グ 1
コ 1
サ 1
シ 1
ジ 1
ス 1
ズ 1
タ 1
ダ 1
ッ 1
テ 1
デ 1
ト 1
ド 1
ナ 1
ニ 1
ハ 1
バ 1
パ 1
フ 1
ブ 1
プ 1
マ 1
ミ 1
ム 1
ャ 1
ュ 1
ラ 1
リ 1
ル 1
レ 1
ロ 1
ン 1
・ 1
ー 1
一 1
三 1
上 1
下 1
中 1
事 1
二 1
井 1
京 1
人 1
亻 1
仁 1
佐 1
侍 1
光 1
公 1
力 1
北 1
十 1
南 1
原 1
口 1
史 1
司 1
吉 1
同 1
和 1
囗 1
国 1
國 1
土 1
城 1
士 1
大 1
天 1
太 1
夫 1
女 1
子 1
宀 1
安 1
宮 1
宿 1
小 1
尚 1
山 1
島 1
川 1
州 1
平 1
年 1
心 1
愛 1
戸 1
文 1
新 1
方 1
日 1
明 1
星 1
書 1
月 1
木 1
本 1
李 1
村 1
東 1
松 1
林 1
正 1
武 1
氏 1
水 1
氵 1
江 1
河 1
海 1
版 1
犬 1
王 1
生 1
田 1
白 1
皇 1
省 1
真 1
石 1
社 1
神 1
竹 1
美 1
義 1
花 1
藤 1
西 1
谷 1
車 1
辶 1
道 1
郎 1
郡 1
部 1
野 1
金 1
長 1
門 1
陽 1
青 1
食 1
馬 1
高 1
龍 1
龸 1
사 1
씨 1
의 1
이 1
한 1
ﬁ 1
ﬂ 1
！ 1
（ 1
） 1
， 1
－ 1
／ 1
： 1
the 1
of 1
and 1
to 1
in 1
was 1
The 1
is 1
for 1
as 1
on 1
with 1
that 1
##s 1
his 1
by 1
he 1
at 1
from 1
it 1
her 1
He 1
had 1
an 1
were 1
you 1
be 1
In 1
she 1
are 1
but 1
which 1
It 1
not 1
or 1
have 1
my 1
him 1
one 1
this 1
me 1
has 1
also 1
up 1
their 1
first 1
out 1
who 1
been 1
they 1
She 1
into 1
all 1
would 1
its 1
##ing 1
time 1
two 1
##a 1
##e 1
said 1
about 1
when 1
over 1
more 1
other 1
can 1
after 1
back 1
them 1
then 1
##ed 1
there 1
like 1
so 1
only 1
##n 1
could 1
##d 1
##i 1
##y 1
what 1
no 1
##o 1
where 1
This 1
made 1
than 1
if 1
You 1
##ly 1
through 1
we 1
before 1
##r 1
just 1
some 1
##er 1
years 1
do 1
New 1
##t 1
down 1
between 1
new 1
now 1
will 1
three 1
most 1
On 1
around 1
year 1
used 1
such 1
being 1
well 1
during 1
They 1
know 1
against 1
under 1
later 1
did 1
part 1
known 1
off 1
while 1
His 1
re 1
... 1
##l 1
people 1
until 1
way 1
American 1
didn 1
University 1
your 1
both 1
many 1
get 1
United 1
became 1
head 1
There 1
second 1
As 1
work 1
any 1
But 1
still 1
again 1
born 1
even 1
eyes 1
After 1
including 1
de 1
took 1
And 1
long 1
team 1
season 1
family 1
see 1
right 1
same 1
called 1
name 1
because 1
film 1
don 1
10 1
found 1
much 1
school 1
##es 1
going 1
won 1
place 1
away 1
We 1
day 1
left 1
John 1
000 1
hand 1
since 1
World 1
these 1
how 1
make 1
number 1
each 1
life 1
area 1
man 1
four 1
go 1
No 1
here 1
very 1
National 1
##m 1
played 1
released 1
never 1
began 1
States 1
album 1
home 1
last 1
too 1
held 1
several 1
May 1
own 1
##on 1
take 1
end 1
School 1
##h 1
ll 1
series 1
What 1
want 1
use 1
another 1
city 1
When 1
2010 1
side 1
At 1
may 1
That 1
came 1
face 1
June 1
think 1
game 1
those 1
high 1
March 1
early 1
September 1
##al 1
2011 1
looked 1
July 1
state 1
small 1
thought 1
went 1
January 1
October 1
##u 1
based 1
August 1
##us 1
world 1
good 1
April 1
York 1
us 1
12 1
2012 1
2008 1
For 1
2009 1
group 1
along 1
few 1
South 1
little 1
##k 1
following 1
November 1
something 1
2013 1
December 1
set 1
2007 1
old 1
2006 1
2014 1
located 1
##an 1
music 1
County 1
City 1
former 1
##in 1
room 1
ve 1
next 1
All 1
##man 1
got 1
father 1
house 1
##g 1
body 1
15 1
20 1
18 1
started 1
If 1
2015 1
town 1
our 1
line 1
War 1
large 1
population 1
named 1
British 1
company 1
member 1
five 1
My 1
single 1
##en 1
age 1
State 1
moved 1
February 1
11 1
Her 1
should 1
century 1
government 1
built 1
come 1
best 1
show 1
However 1
within 1
look 1
men 1
door 1
without 1
need 1
wasn 1
2016 1
water 1
One 1
system 1
knew 1
every 1
died 1
League 1
turned 1
asked 1
North 1
St 1
wanted 1
building 1
received 1
song 1
served 1
though 1
felt 1
##ia 1
station 1
band 1
##ers 1
local 1
public 1
himself 1
different 1
death 1
say 1
##1 1
30 1
##2 1
2005 1
16 1
night 1
behind 1
children 1
English 1
members 1
near 1
saw 1
together 1
son 1
14 1
voice 1
village 1
13 1
hands 1
help 1
##3 1
due 1
French 1
London 1
top 1
told 1
open 1
published 1
third 1
2017 1
play 1
across 1
During 1
put 1
final 1
often 1
include 1
25 1
##le 1
main 1
having 1
2004 1
once 1
ever 1
let 1
book 1
led 1
gave 1
late 1
front 1
find 1
club 1
##4 1
German 1
included 1
species 1
College 1
form 1
opened 1
mother 1
women 1
enough 1
West 1
must 1
2000 1
power 1
really 1
17 1
making 1
half 1
##6 1
order 1
might 1
##is 1
given 1
million 1
times 1
days 1
point 1
full 1
service 1
With 1
km 1
major 1
##7 1
original 1
become 1
seen 1
II 1
north 1
six 1
##te 1
love 1
##0 1
national 1
International 1
##5 1
24 1
So 1
District 1
lost 1
run 1
couldn 1
career 1
always 1
##9 1
2003 1
##th 1
country 1
##z 1
House 1
air 1
tell 1
south 1
worked 1
woman 1
player 1
##A 1
almost 1
war 1
River 1
##ic 1
married 1
continued 1
Then 1
James 1
close 1
black 1
short 1
##8 1
##na 1
using 1
history 1
returned 1
light 1
car 1
##ra 1
sure 1
William 1
things 1
General 1
##ry 1
2002 1
better 1
support 1
100 1
among 1
From 1
feet 1
King 1
anything 1
21 1
19 1
established 1
district 1
2001 1
feel 1
great 1
##ton 1
level 1
Cup 1
These 1
written 1
games 1
others 1
already 1
title 1
story 1
##p 1
law 1
thing 1
US 1
record 1
role 1
however 1
By 1
students 1
England 1
white 1
control 1
least 1
inside 1
land 1
##C 1
22 1
give 1
community 1
hard 1
##ie 1
non 1
##c 1
produced 1
George 1
round 1
period 1
Park 1
business 1
various 1
##ne 1
does 1
present 1
wife 1
far 1
taken 1
per 1
reached 1
David 1
able 1
version 1
working 1
young 1
live 1
created 1
joined 1
East 1
living 1
appeared 1
case 1
High 1
done 1
23 1
important 1
President 1
Award 1
France 1
position 1
office 1
looking 1
total 1
general 1
class 1
To 1
production 1
##S 1
football 1
party 1
brother 1
keep 1
mind 1
free 1
Street 1
hair 1
announced 1
development 1
either 1
nothing 1
moment 1
Church 1
followed 1
wrote 1
why 1
India 1
San 1
election 1
1999 1
lead 1
How 1
##ch 1
##rs 1
words 1
European 1
course 1
considered 1
America 1
arms 1
Army 1
political 1
##la 1
28 1
26 1
west 1
east 1
ground 1
further 1
church 1
less 1
site 1
First 1
Not 1
Australia 1
toward 1
California 1
##ness 1
described 1
works 1
An 1
Council 1
heart 1
past 1
military 1
27 1
##or 1
heard 1
field 1
human 1
soon 1
founded 1
1998 1
playing 1
trying 1
##x 1
##ist 1
##ta 1
television 1
mouth 1
although 1
taking 1
win 1
fire 1
Division 1
##ity 1
Party 1
Royal 1
program 1
Some 1
Don 1
Association 1
According 1
tried 1
TV 1
Paul 1
outside 1
daughter 1
Best 1
While 1
someone 1
match 1
recorded 1
Canada 1
closed 1
region 1
Air 1
above 1
months 1
elected 1
##da 1
##ian 1
road 1
##ar 1
brought 1
move 1
1997 1
leave 1
##um 1
Thomas 1
1996 1
am 1
low 1
Robert 1
formed 1
person 1
services 1
points 1
Mr 1
miles 1
##b 1
stop 1
rest 1
doing 1
needed 1
international 1
release 1
floor 1
start 1
sound 1
call 1
killed 1
real 1
dark 1
research 1
finished 1
language 1
Michael 1
professional 1
change 1
sent 1
50 1
upon 1
29 1
track 1
hit 1
event 1
2018 1
term 1
example 1
Germany 1
similar 1
return 1
##ism 1
fact 1
pulled 1
stood 1
says 1
ran 1
information 1
yet 1
result 1
developed 1
girl 1
##re 1
God 1
1995 1
areas 1
signed 1
decided 1
##ment 1
Company 1
seemed 1
##el 1
co 1
turn 1
race 1
common 1
video 1
Charles 1
Indian 1
##ation 1
blood 1
art 1
red 1
##able 1
added 1
rather 1
1994 1
met 1
director 1
addition 1
design 1
average 1
minutes 1
##ies 1
##ted 1
available 1
bed 1
coming 1
friend 1
idea 1
kind 1
Union 1
Road 1
remained 1
##ting 1
everything 1
##ma 1
running 1
care 1
finally 1
Chinese 1
appointed 1
1992 1
Australian 1
##ley 1
popular 1
mean 1
teams 1
probably 1
##land 1
usually 1
project 1
social 1
Championship 1
possible 1
word 1
Russian 1
instead 1
mi 1
herself 1
##T 1
Peter 1
Hall 1
Center 1
seat 1
style 1
money 1
1993 1
else 1
Department 1
table 1
Music 1
current 1
31 1
features 1
special 1
events 1
character 1
Two 1
square 1
sold 1
debut 1
##v 1
process 1
Although 1
Since 1
##ka 1
40 1
Central 1
currently 1
education 1
placed 1
lot 1
China 1
quickly 1
forward 1
seven 1
##ling 1
Europe 1
arm 1
performed 1
Japanese 1
1991 1
Henry 1
Now 1
Dr 1
##ion 1
week 1
Group 1
myself 1
big 1
UK 1
Washington 1
ten 1
deep 1
1990 1
Club 1
Japan 1
space 1
La 1
directed 1
smile 1
episode 1
hours 1
whole 1
##de 1
##less 1
Why 1
wouldn 1
designed 1
strong 1
training 1
changed 1
Society 1
stage 1
involved 1
hadn 1
towards 1
leading 1
police 1
eight 1
kept 1
Institute 1
study 1
largest 1
child 1
eventually 1
private 1
modern 1
Court 1
throughout 1
getting 1
originally 1
attack 1
##E 1
talk 1
Great 1
longer 1
songs 1
alone 1
##ine 1
wide 1
dead 1
walked 1
shot 1
##ri 1
Oh 1
force 1
##st 1
Art 1
today 1
friends 1
Island 1
Richard 1
1989 1
center 1
construction 1
believe 1
size 1
White 1
ship 1
completed 1
##B 1
gone 1
Just 1
rock 1
sat 1
##R 1
radio 1
below 1
entire 1
families 1
league 1
includes 1
type 1
lived 1
official 1
range 1
hold 1
featured 1
Most 1
##ter 1
president 1
passed 1
means 1
##f 1
forces 1
lips 1
Mary 1
Do 1
guitar 1
##ce 1
food 1
wall 1
Of 1
spent 1
Its 1
performance 1
hear 1
##P 1
Western 1
reported 1
sister 1
##et 1
morning 1
##M 1
especially 1
##ive 1
Minister 1
itself 1
post 1
bit 1
groups 1
1988 1
##tion 1
Black 1
##ng 1
Well 1
raised 1
sometimes 1
Canadian 1
Paris 1
Spanish 1
replaced 1
schools 1
Academy 1
leaving 1
central 1
female 1
Christian 1
Jack 1
whose 1
college 1
onto 1
provided 1
##D 1
##ville 1
players 1
actually 1
stopped 1
##son 1
Museum 1
doesn 1
##ts 1
books 1
fight 1
allowed 1
##ur 1
beginning 1
Records 1
awarded 1
parents 1
coach 1
##os 1
Red 1
saying 1
##ck 1
Smith 1
Yes 1
Lake 1
##L 1
aircraft 1
1987 1
##ble 1
previous 1
ft 1
action 1
Italian 1
African 1
happened 1
vocals 1
Act 1
future 1
court 1
##ge 1
1986 1
degree 1
phone 1
##ro 1
Is 1
countries 1
winning 1
breath 1
Love 1
river 1
matter 1
Lord 1
Other 1
list 1
self 1
parts 1
##ate 1
provide 1
cut 1
shows 1
plan 1
1st 1
interest 1
##ized 1
Africa 1
stated 1
Sir 1
fell 1
owned 1
earlier 1
ended 1
competition 1
attention 1
1985 1
lower 1
nearly 1
bad 1
older 1
stay 1
Saint 1
##se 1
certain 1
1984 1
fingers 1
blue 1
try 1
fourth 1
Grand 1
##as 1
king 1
##nt 1
makes 1
chest 1
movement 1
states 1
moving 1
data 1
introduced 1
model 1
date 1
section 1
Los 1
deal 1
##I 1
skin 1
entered 1
middle 1
success 1
Texas 1
##w 1
summer 1
island 1
##N 1
Republic 1
length 1
husband 1
1980 1
##ey 1
reason 1
anyone 1
forced 1
via 1
base 1
500 1
job 1
covered 1
Festival 1
Roman 1
successful 1
rights 1
cover 1
Man 1
writing 1
Ireland 1
##F 1
related 1
goal 1
takes 1
buildings 1
true 1
weeks 1
1983 1
Because 1
opening 1
novel 1
ISBN 1
meet 1
gold 1
##ous 1
mid 1
km² 1
standing 1
Football 1
Chicago 1
shook 1
whom 1
##ki 1
1982 1
Day 1
feeling 1
scored 1
boy 1
higher 1
Force 1
leader 1
heavy 1
fall 1
question 1
sense 1
army 1
Second 1
energy 1
meeting 1
themselves 1
kill 1
##am 1
board 1
census 1
##ya 1
##ns 1
mine 1
meant 1
market 1
required 1
battle 1
campaign 1
attended 1
approximately 1
Kingdom 1
runs 1
active 1
##ha 1
contract 1
clear 1
previously 1
health 1
1979 1
Arts 1
complete 1
Catholic 1
couple 1
units 1
##ll 1
##ty 1
Committee 1
shoulder 1
sea 1
systems 1
listed 1
##O 1
caught 1
tournament 1
##G 1
northern 1
author 1
Film 1
Your 1
##men 1
holding 1
offered 1
personal 1
1981 1
southern 1
artist 1
traditional 1
studio 1
200 1
capital 1
##ful 1
regular 1
ask 1
giving 1
organization 1
month 1
news 1
Are 1
read 1
managed 1
helped 1
studied 1
student 1
defeated 1
natural 1
industry 1
Year 1
noted 1
decision 1
Government 1
quite 1
##id 1
smiled 1
1972 1
Maybe 1
tracks 1
##ke 1
Mark 1
al 1
media 1
engine 1
hour 1
Their 1
relationship 1
plays 1
property 1
structure 1
1976 1
ago 1
Hill 1
Martin 1
1978 1
ready 1
Many 1
Like 1
Bay 1
immediately 1
generally 1
Italy 1
Greek 1
practice 1
caused 1
division 1
significant 1
Joseph 1
speed 1
Let 1
thinking 1
completely 1
1974 1
primary 1
mostly 1
##field 1
##K 1
1975 1
##to 1
Even 1
writer 1
##led 1
dropped 1
magazine 1
collection 1
understand 1
route 1
highest 1
particular 1
films 1
lines 1
network 1
Science 1
loss 1
carried 1
direction 1
green 1
1977 1
location 1
producer 1
according 1
Women 1
Queen 1
neck 1
thus 1
independent 1
view 1
1970 1
Angeles 1
Soviet 1
distance 1
problem 1
Board 1
tour 1
western 1
income 1
appearance 1
access 1
Mexico 1
nodded 1
street 1
surface 1
arrived 1
believed 1
Old 1
1968 1
1973 1
becoming 1
whether 1
1945 1
figure 1
singer 1
stand 1
Following 1
issue 1
window 1
wrong 1
pain 1
everyone 1
lives 1
issues 1
park 1
slowly 1
la 1
act 1
##va 1
bring 1
Lee 1
operations 1
key 1
comes 1
fine 1
cold 1
famous 1
Navy 1
1971 1
Me 1
additional 1
individual 1
##ner 1
Zealand 1
goals 1
county 1
contains 1
Service 1
minute 1
2nd 1
reach 1
talking 1
particularly 1
##ham 1
movie 1
Director 1
glass 1
paper 1
studies 1
##co 1
railway 1
standard 1
Education 1
45 1
represented 1
Chief 1
Louis 1
launched 1
Star 1
terms 1
60 1
1969 1
experience 1
watched 1
Another 1
Press 1
Tom 1
staff 1
starting 1
subject 1
break 1
Virginia 1
nine 1
eye 1
##age 1
evidence 1
foot 1
##est 1
companies 1
Prince 1
##V 1
gun 1
create 1
Big 1
People 1
guy 1
Green 1
simply 1
numerous 1
##line 1
increased 1
twenty 1
##ga 1
##do 1
1967 1
award 1
officer 1
stone 1
Before 1
material 1
Northern 1
grew 1
male 1
plant 1
Life 1
legs 1
step 1
Al 1
unit 1
35 1
except 1
answer 1
##U 1
report 1
response 1
Edward 1
commercial 1
edition 1
trade 1
science 1
##ca 1
Irish 1
Law 1
shown 1
rate 1
failed 1
##ni 1
remains 1
changes 1
mm 1
limited 1
larger 1
Later 1
cause 1
waiting 1
Time 1
##wood 1
cost 1
Bill 1
manager 1
activities 1
likely 1
allow 1
operated 1
retired 1
##ping 1
65 1
directly 1
Who 1
associated 1
effect 1
hell 1
Florida 1
straight 1
hot 1
Valley 1
management 1
girls 1
expected 1
eastern 1
Mike 1
chance 1
cast 1
centre 1
chair 1
hurt 1
problems 1
##li 1
walk 1
programs 1
Team 1
characters 1
Battle 1
edge 1
pay 1
maybe 1
corner 1
majority 1
medical 1
Joe 1
Summer 1
##io 1
attempt 1
Pacific 1
command 1
Radio 1
##by 1
names 1
municipality 1
1964 1
train 1
economic 1
Brown 1
feature 1
sex 1
source 1
agreed 1
remember 1
Three 1
1966 1
1965 1
Pennsylvania 1
victory 1
senior 1
annual 1
III 1
Southern 1
results 1
Sam 1
serving 1
religious 1
Jones 1
appears 1
##der 1
despite 1
claimed 1
Both 1
musical 1
matches 1
fast 1
security 1
selected 1
Young 1
double 1
complex 1
hospital 1
chief 1
Times 1
##ve 1
Championships 1
filled 1
Public 1
Despite 1
beautiful 1
Research 1
plans 1
Province 1
##ally 1
Wales 1
##ko 1
artists 1
metal 1
nearby 1
Spain 1
##il 1
32 1
houses 1
supported 1
piece 1
##no 1
stared 1
recording 1
nature 1
legal 1
Russia 1
##ization 1
remaining 1
looks 1
##sh 1
bridge 1
closer 1
cases 1
scene 1
marriage 1
Little 1
##é 1
uses 1
Earth 1
specific 1
Frank 1
theory 1
Good 1
discovered 1
referred 1
bass 1
culture 1
university 1
presented 1
Congress 1
##go 1
metres 1
continue 1
1960 1
isn 1
Awards 1
meaning 1
cell 1
composed 1
separate 1
Series 1
forms 1
Blue 1
cross 1
##tor 1
increase 1
test 1
computer 1
slightly 1
Where 1
Jewish 1
Town 1
tree 1
status 1
1944 1
variety 1
responsible 1
pretty 1
initially 1
##way 1
realized 1
pass 1
provides 1
Captain 1
Alexander 1
recent 1
score 1
broke 1
Scott 1
drive 1
financial 1
showed 1
Line 1
stories 1
ordered 1
soldiers 1
genus 1
operation 1
gaze 1
sitting 1
society 1
Only 1
hope 1
actor 1
follow 1
Empire 1
Yeah 1
technology 1
happy 1
focus 1
policy 1
spread 1
situation 1
##ford 1
##ba 1
Mrs 1
watch 1
Can 1
1963 1
Commission 1
touch 1
earned 1
troops 1
Under 1
1962 1
individuals 1
cannot 1
19th 1
##lin 1
mile 1
expression 1
exactly 1
suddenly 1
weight 1
dance 1
stepped 1
places 1
appear 1
difficult 1
Railway 1
anti 1
numbers 1
kilometres 1
star 1
##ier 1
department 1
ice 1
Britain 1
removed 1
Once 1
##lo 1
Boston 1
value 1
##ant 1
mission 1
trees 1
Order 1
sports 1
join 1
serve 1
Major 1
poor 1
Poland 1
mainly 1
Theatre 1
pushed 1
Station 1
##it 1
Lady 1
federal 1
silver 1
##ler 1
foreign 1
##ard 1
Eastern 1
##den 1
box 1
hall 1
subsequently 1
lies 1
acquired 1
1942 1
ancient 1
CD 1
History 1
Jean 1
beyond 1
##ger 1
El 1
##les 1
growing 1
championship 1
native 1
Parliament 1
Williams 1
watching 1
direct 1
overall 1
offer 1
Also 1
80 1
Secretary 1
spoke 1
Latin 1
ability 1
##ated 1
safe 1
presence 1
##ial 1
headed 1
regional 1
planned 1
1961 1
Johnson 1
throat 1
consists 1
##W 1
extended 1
Or 1
bar 1
walls 1
Chris 1
stations 1
politician 1
Olympics 1
influence 1
share 1
fighting 1
speak 1
hundred 1
Carolina 1
die 1
stars 1
##tic 1
color 1
Chapter 1
##ish 1
fear 1
sleep 1
goes 1
Francisco 1
oil 1
Bank 1
sign 1
physical 1
##berg 1
Dutch 1
seasons 1
##rd 1
Games 1
Governor 1
sorry 1
lack 1
Centre 1
memory 1
baby 1
smaller 1
charge 1
Did 1
multiple 1
ships 1
shirt 1
Assembly 1
amount 1
leaves 1
3rd 1
Foundation 1
conditions 1
1943 1
Rock 1
Democratic 1
Daniel 1
##at 1
winner 1
products 1
##ina 1
store 1
latter 1
Professor 1
civil 1
prior 1
host 1
1956 1
soft 1
vote 1
needs 1
Each 1
rules 1
1958 1
pressure 1
letter 1
normal 1
proposed 1
levels 1
records 1
1959 1
paid 1
intended 1
Victoria 1
purpose 1
okay 1
historical 1
issued 1
1980s 1
broadcast 1
rule 1
simple 1
picked 1
firm 1
Sea 1
1941 1
Elizabeth 1
1940 1
serious 1
featuring 1
highly 1
graduated 1
mentioned 1
choice 1
1948 1
replied 1
percent 1
Scotland 1
##hi 1
females 1
constructed 1
1957 1
settled 1
Steve 1
recognized 1
cities 1
crew 1
glanced 1
kiss 1
competed 1
flight 1
knowledge 1
editor 1
More 1
Conference 1
##H 1
fifth 1
elements 1
##ee 1
##tes 1
function 1
newspaper 1
recently 1
Miss 1
cultural 1
brown 1
twice 1
Office 1
1939 1
truth 1
Creek 1
1946 1
households 1
USA 1
1950 1
quality 1
##tt 1
border 1
seconds 1
destroyed 1
pre 1
wait 1
ahead 1
build 1
image 1
90 1
cars 1
##mi 1
33 1
promoted 1
professor 1
et 1
bank 1
medal 1
text 1
broken 1
Middle 1
revealed 1
sides 1
wing 1
seems 1
channel 1
1970s 1
Ben 1
loved 1
effort 1
officers 1
Will 1
##ff 1
70 1
Israel 1
Jim 1
upper 1
fully 1
label 1
Jr 1
assistant 1
powerful 1
pair 1
positive 1
##ary 1
gives 1
1955 1
20th 1
races 1
remain 1
kitchen 1
primarily 1
##ti 1
Sydney 1
easy 1
Tour 1
whispered 1
buried 1
300 1
News 1
Polish 1
1952 1
Duke 1
Columbia 1
produce 1
accepted 1
00 1
approach 1
minor 1
1947 1
Special 1
44 1
Asian 1
basis 1
visit 1
Fort 1
Civil 1
finish 1
formerly 1
beside 1
leaned 1
##ite 1
median 1
rose 1
coast 1
effects 1
supposed 1
Cross 1
##hip 1
Corps 1
residents 1
Jackson 1
##ir 1
Bob 1
basketball 1
36 1
Asia 1
seem 1
Bishop 1
Book 1
##ber 1
ring 1
##ze 1
owner 1
BBC 1
##ja 1
transferred 1
acting 1
De 1
appearances 1
walking 1
Le 1
press 1
grabbed 1
1954 1
officially 1
1953 1
##pe 1
risk 1
taught 1
review 1
##X 1
lay 1
##well 1
council 1
Avenue 1
seeing 1
losing 1
Ohio 1
Super 1
province 1
ones 1
travel 1
##sa 1
projects 1
equipment 1
spot 1
Berlin 1
administrative 1
heat 1
potential 1
shut 1
capacity 1
elections 1
growth 1
fought 1
Republican 1
mixed 1
Andrew 1
teacher 1
turning 1
strength 1
shoulders 1
beat 1
wind 1
1949 1
Health 1
follows 1
camp 1
suggested 1
perhaps 1
Alex 1
mountain 1
contact 1
divided 1
candidate 1
fellow 1
34 1
Show 1
necessary 1
workers 1
ball 1
horse 1
ways 1
questions 1
protect 1
gas 1
activity 1
younger 1
bottom 1
founder 1
Scottish 1
screen 1
treatment 1
easily 1
com 1
##house 1
dedicated 1
Master 1
warm 1
Night 1
Georgia 1
Long 1
von 1
##me 1
perfect 1
website 1
1960s 1
piano 1
efforts 1
##ide 1
Tony 1
sort 1
offers 1
Development 1
Simon 1
executive 1
##nd 1
save 1
Over 1
Senate 1
1951 1
1990s 1
draw 1
master 1
Police 1
##ius 1
renamed 1
boys 1
initial 1
prominent 1
damage 1
Co 1
##ov 1
##za 1
online 1
begin 1
occurred 1
captured 1
youth 1
Top 1
account 1
tells 1
Justice 1
conducted 1
forest 1
##town 1
bought 1
teeth 1
Jersey 1
##di 1
purchased 1
agreement 1
Michigan 1
##ure 1
campus 1
prison 1
becomes 1
product 1
secret 1
guess 1
Route 1
huge 1
types 1
drums 1
64 1
split 1
defeat 1
estate 1
housing 1
##ot 1
brothers 1
Coast 1
declared 1
happen 1
titled 1
therefore 1
sun 1
commonly 1
alongside 1
Stadium 1
library 1
Home 1
article 1
steps 1
telling 1
slow 1
assigned 1
refused 1
laughed 1
wants 1
Nick 1
wearing 1
Rome 1
Open 1
##ah 1
Hospital 1
pointed 1
Taylor 1
lifted 1
escape 1
participated 1
##j 1
drama 1
parish 1
Santa 1
##per 1
organized 1
mass 1
pick 1
Airport 1
gets 1
Library 1
unable 1
pull 1
Live 1
##ging 1
surrounding 1
##ries 1
focused 1
Adam 1
facilities 1
##ning 1
##ny 1
38 1
##ring 1
notable 1
era 1
connected 1
gained 1
operating 1
laid 1
Regiment 1
branch 1
defined 1
Christmas 1
machine 1
Four 1
academic 1
Iran 1
adopted 1
concept 1
Men 1
compared 1
search 1
traffic 1
Max 1
Maria 1
greater 1
##ding 1
widely 1
##burg 1
serves 1
1938 1
37 1
Go 1
hotel 1
shared 1
typically 1
scale 1
1936 1
leg 1
suffered 1
yards 1
pieces 1
Ministry 1
Wilson 1
episodes 1
empty 1
1918 1
safety 1
continues 1
yellow 1
historic 1
settlement 1
400 1
Come 1
Corporation 1
enemy 1
content 1
picture 1
evening 1
territory 1
method 1
trial 1
solo 1
driver 1
Here 1
##ls 1
entrance 1
Prize 1
spring 1
whatever 1
##ent 1
75 1
##ji 1
reading 1
Arthur 1
##cy 1
Our 1
clothes 1
Prime 1
Illinois 1
Kong 1
code 1
##ria 1
sit 1
Harry 1
Federal 1
chosen 1
administration 1
bodies 1
begins 1
stomach 1
Though 1
seats 1
Hong 1
density 1
Sun 1
leaders 1
Field 1
museum 1
chart 1
platform 1
languages 1
##ron 1
birth 1
holds 1
Gold 1
##un 1
fish 1
combined 1
##ps 1
4th 1
1937 1
largely 1
captain 1
trust 1
Game 1
van 1
boat 1
Oxford 1
basic 1
beneath 1
Islands 1
painting 1
nice 1
Toronto 1
path 1
males 1
sources 1
block 1
conference 1
parties 1
murder 1
clubs 1
crowd 1
calling 1
About 1
Business 1
peace 1
knows 1
lake 1
speaking 1
stayed 1
Brazil 1
allowing 1
Born 1
unique 1
thick 1
Technology 1
##que 1
receive 1
des 1
semi 1
alive 1
noticed 1
format 1
##ped 1
coffee 1
digital 1
##ned 1
handed 1
guard 1
tall 1
faced 1
setting 1
plants 1
partner 1
claim 1
reduced 1
temple 1
animals 1
determined 1
classes 1
##out 1
estimated 1
##ad 1
Olympic 1
providing 1
Massachusetts 1
learned 1
Inc 1
Philadelphia 1
Social 1
carry 1
42 1
possibly 1
hosted 1
tonight 1
respectively 1
Today 1
shape 1
Mount 1
roles 1
designated 1
brain 1
etc 1
Korea 1
thoughts 1
Brian 1
Highway 1
doors 1
background 1
drew 1
models 1
footballer 1
tone 1
turns 1
1935 1
quiet 1
tower 1
wood 1
bus 1
write 1
software 1
weapons 1
flat 1
marked 1
1920 1
newly 1
tight 1
Eric 1
finger 1
Journal 1
FC 1
Van 1
rise 1
critical 1
Atlantic 1
granted 1
returning 1
communities 1
humans 1
quick 1
39 1
48 1
ranked 1
sight 1
pop 1
Swedish 1
Stephen 1
card 1
analysis 1
attacked 1
##wa 1
Sunday 1
identified 1
Jason 1
champion 1
situated 1
1930 1
expanded 1
tears 1
##nce 1
reaching 1
Davis 1
protection 1
Emperor 1
positions 1
nominated 1
Bridge 1
tax 1
dress 1
allows 1
avoid 1
leadership 1
killing 1
actress 1
guest 1
steel 1
knowing 1
electric 1
cells 1
disease 1
grade 1
unknown 1
##ium 1
resulted 1
Pakistan 1
confirmed 1
##ged 1
tongue 1
covers 1
##Y 1
roof 1
entirely 1
applied 1
votes 1
drink 1
interview 1
exchange 1
Township 1
reasons 1
##ised 1
page 1
calls 1
dog 1
agent 1
nose 1
teaching 1
##ds 1
##ists 1
advanced 1
wish 1
Golden 1
existing 1
vehicle 1
del 1
1919 1
develop 1
attacks 1
pressed 1
Sports 1
planning 1
resulting 1
facility 1
Sarah 1
notes 1
1933 1
Class 1
Historic 1
winter 1
##mo 1
audience 1
Community 1
household 1
Netherlands 1
creation 1
##ize 1
keeping 1
1914 1
claims 1
dry 1
guys 1
opposite 1
##ak 1
explained 1
Ontario 1
secondary 1
difference 1
Francis 1
actions 1
organizations 1
yard 1
animal 1
Up 1
Lewis 1
titles 1
Several 1
1934 1
Ryan 1
55 1
Supreme 1
rolled 1
1917 1
distribution 1
figures 1
afraid 1
rural 1
yourself 1
##rt 1
sets 1
barely 1
Instead 1
passing 1
awards 1
41 1
silence 1
authority 1
occupied 1
environment 1
windows 1
engineering 1
surprised 1
flying 1
crime 1
reports 1
Mountain 1
powers 1
driving 1
succeeded 1
reviews 1
1929 1
Head 1
missing 1
Song 1
Jesus 1
opportunity 1
inspired 1
ends 1
albums 1
conversation 1
impact 1
injury 1
surprise 1
billion 1
learning 1
heavily 1
oldest 1
union 1
creating 1
##ky 1
festival 1
literature 1
letters 1
sexual 1
##tte 1
apartment 1
Final 1
comedy 1
nation 1
orders 1
##sen 1
contemporary 1
Power 1
drawn 1
existence 1
connection 1
##ating 1
Post 1
Junior 1
remembered 1
message 1
Medal 1
castle 1
note 1
engineer 1
sounds 1
Beach 1
crossed 1
##dy 1
ear 1
scientific 1
sales 1
##ai 1
theme 1
starts 1
clearly 1
##ut 1
trouble 1
##gan 1
bag 1
##han 1
BC 1
sons 1
1928 1
silent 1
versions 1
daily 1
Studies 1
ending 1
Rose 1
guns 1
1932 1
headquarters 1
reference 1
obtained 1
Squadron 1
concert 1
none 1
du 1
Among 1
##don 1
prevent 1
Member 1
answered 1
staring 1
Between 1
##lla 1
portion 1
drug 1
liked 1
association 1
performances 1
Nations 1
formation 1
Castle 1
lose 1
learn 1
scoring 1
relatively 1
quarter 1
47 1
Premier 1
##ors 1
Sweden 1
baseball 1
attempted 1
trip 1
worth 1
perform 1
airport 1
fields 1
enter 1
honor 1
Medical 1
rear 1
commander 1
officials 1
condition 1
supply 1
materials 1
52 1
Anna 1
volume 1
threw 1
Persian 1
43 1
interested 1
Gallery 1
achieved 1
visited 1
laws 1
relief 1
Area 1
Matt 1
singles 1
Lieutenant 1
Country 1
fans 1
Cambridge 1
sky 1
Miller 1
effective 1
tradition 1
Port 1
##ana 1
minister 1
extra 1
entitled 1
System 1
sites 1
authorities 1
acres 1
committee 1
racing 1
1931 1
desk 1
trains 1
ass 1
weren 1
Family 1
farm 1
##ance 1
industrial 1
##head 1
iron 1
49 1
abandoned 1
Out 1
Holy 1
chairman 1
waited 1
frequently 1
display 1
Light 1
transport 1
starring 1
Patrick 1
Engineering 1
eat 1
FM 1
judge 1
reaction 1
centuries 1
price 1
##tive 1
Korean 1
defense 1
Get 1
arrested 1
1927 1
send 1
urban 1
##ss 1
pilot 1
Okay 1
Media 1
reality 1
arts 1
soul 1
thirty 1
##be 1
catch 1
generation 1
##nes 1
apart 1
Anne 1
drop 1
See 1
##ving 1
sixth 1
trained 1
Management 1
magic 1
cm 1
height 1
Fox 1
Ian 1
resources 1
vampire 1
principal 1
Was 1
haven 1
##au 1
Walter 1
Albert 1
rich 1
1922 1
causing 1
entry 1
##ell 1
shortly 1
46 1
worry 1
doctor 1
composer 1
rank 1
Network 1
bright 1
showing 1
regions 1
1924 1
wave 1
carrying 1
kissed 1
finding 1
missed 1
Earl 1
lying 1
target 1
vehicles 1
Military 1
controlled 1
dinner 1
##board 1
briefly 1
lyrics 1
motion 1
duty 1
strange 1
attempts 1
invited 1
kg 1
villages 1
5th 1
Land 1
##mer 1
Christ 1
prepared 1
twelve 1
check 1
thousand 1
earth 1
copies 1
en 1
transfer 1
citizens 1
Americans 1
politics 1
nor 1
theatre 1
Project 1
##bo 1
clean 1
rooms 1
laugh 1
##ran 1
application 1
contained 1
anyway 1
containing 1
Sciences 1
1925 1
rare 1
speech 1
exist 1
1950s 1
falling 1
passenger 1
##im 1
stands 1
51 1
##ol 1
##ow 1
phase 1
governor 1
kids 1
details 1
methods 1
Vice 1
employed 1
performing 1
counter 1
Jane 1
heads 1
Channel 1
wine 1
opposition 1
aged 1
1912 1
Every 1
1926 1
highway 1
##ura 1
1921 1
aired 1
978 1
permanent 1
Forest 1
finds 1
joint 1
approved 1
##pur 1
brief 1
doubt 1
acts 1
brand 1
wild 1
closely 1
Ford 1
Kevin 1
chose 1
shall 1
port 1
sweet 1
fun 1
asking 1
Be 1
##bury 1
sought 1
Dave 1
Mexican 1
mom 1
Right 1
Howard 1
Moscow 1
Charlie 1
Stone 1
##mann 1
admitted 1
##ver 1
wooden 1
1923 1
Officer 1
relations 1
Hot 1
combat 1
publication 1
chain 1
shop 1
inhabitants 1
proved 1
ideas 1
address 1
1915 1
Memorial 1
explain 1
increasing 1
conflict 1
Anthony 1
Melbourne 1
narrow 1
temperature 1
slid 1
1916 1
worse 1
selling 1
documentary 1
Ali 1
Ray 1
opposed 1
vision 1
dad 1
extensive 1
Infantry 1
commissioned 1
Doctor 1
offices 1
programming 1
core 1
respect 1
storm 1
##pa 1
##ay 1
##om 1
promotion 1
der 1
struck 1
anymore 1
shit 1
Region 1
receiving 1
DVD 1
alternative 1
##ue 1
ride 1
maximum 1
1910 1
##ious 1
Third 1
Affairs 1
cancer 1
Executive 1
##op 1
dream 1
18th 1
Due 1
##ker 1
##worth 1
economy 1
IV 1
Billboard 1
identity 1
subsequent 1
statement 1
skills 1
##back 1
funding 1
##ons 1
Round 1
Foreign 1
truck 1
Please 1
lights 1
wondered 1
##ms 1
frame 1
yes 1
Still 1
districts 1
fiction 1
Colonel 1
converted 1
150 1
grown 1
accident 1
critics 1
fit 1
Information 1
architecture 1
Point 1
Five 1
armed 1
Billy 1
poet 1
functions 1
consisted 1
suit 1
Turkish 1
Band 1
object 1
desire 1
##ities 1
sounded 1
flow 1
Norwegian 1
articles 1
Marie 1
pulling 1
thin 1
singing 1
Hunter 1
Human 1
Battalion 1
Federation 1
Kim 1
origin 1
represent 1
dangerous 1
weather 1
fuel 1
ex 1
##sing 1
Last 1
bedroom 1
aid 1
knees 1
Alan 1
angry 1
assumed 1
plane 1
Something 1
founding 1
concerned 1
global 1
Fire 1
di 1
please 1
Portuguese 1
touched 1
Roger 1
nuclear 1
Register 1
Jeff 1
fixed 1
royal 1
lie 1
finals 1
NFL 1
Manchester 1
towns 1
handle 1
shaped 1
Chairman 1
Dean 1
launch 1
understanding 1
Children 1
violence 1
failure 1
sector 1
Brigade 1
wrapped 1
fired 1
sharp 1
tiny 1
developing 1
expansion 1
Free 1
institutions 1
technical 1
Nothing 1
otherwise 1
Main 1
inch 1
Saturday 1
wore 1
Senior 1
attached 1
cheek 1
representing 1
Kansas 1
##chi 1
##kin 1
actual 1
advantage 1
Dan 1
Austria 1
##dale 1
hoped 1
multi 1
squad 1
Norway 1
streets 1
1913 1
Services 1
hired 1
grow 1
pp 1
wear 1
painted 1
Minnesota 1
stuff 1
Building 1
54 1
Philippines 1
1900 1
##ties 1
educational 1
Khan 1
Magazine 1
##port 1
Cape 1
signal 1
Gordon 1
sword 1
Anderson 1
cool 1
engaged 1
Commander 1
images 1
Upon 1
tied 1
Security 1
cup 1
rail 1
Vietnam 1
successfully 1
##red 1
Muslim 1
gain 1
bringing 1
Native 1
hers 1
occurs 1
negative 1
Philip 1
Kelly 1
Colorado 1
category 1
##lan 1
600 1
Have 1
supporting 1
wet 1
56 1
stairs 1
Grace 1
observed 1
##ung 1
funds 1
restaurant 1
1911 1
Jews 1
##ments 1
##che 1
Jake 1
Back 1
53 1
asks 1
journalist 1
accept 1
bands 1
bronze 1
helping 1
##ice 1
decades 1
mayor 1
survived 1
usual 1
influenced 1
Douglas 1
Hey 1
##izing 1
surrounded 1
retirement 1
Temple 1
derived 1
Pope 1
registered 1
producing 1
##ral 1
structures 1
Johnny 1
contributed 1
finishing 1
buy 1
specifically 1
##king 1
patients 1
Jordan 1
internal 1
regarding 1
Samuel 1
Clark 1
##q 1
afternoon 1
Finally 1
scenes 1
notice 1
refers 1
quietly 1
threat 1
Water 1
Those 1
Hamilton 1
promise 1
freedom 1
Turkey 1
breaking 1
maintained 1
device 1
lap 1
ultimately 1
Champion 1
Tim 1
Bureau 1
expressed 1
investigation 1
extremely 1
capable 1
qualified 1
recognition 1
items 1
##up 1
Indiana 1
adult 1
rain 1
greatest 1
architect 1
Morgan 1
dressed 1
equal 1
Antonio 1
collected 1
drove 1
occur 1
Grant 1
graduate 1
anger 1
Sri 1
worried 1
standards 1
##ore 1
injured 1
somewhere 1
damn 1
Singapore 1
Jimmy 1
pocket 1
homes 1
stock 1
religion 1
aware 1
regarded 1
Wisconsin 1
##tra 1
passes 1
fresh 1
##ea 1
argued 1
Ltd 1
EP 1
Diego 1
importance 1
Census 1
incident 1
Egypt 1
Missouri 1
domestic 1
leads 1
ceremony 1
Early 1
camera 1
Father 1
challenge 1
Switzerland 1
lands 1
familiar 1
hearing 1
spend 1
educated 1
Tennessee 1
Thank 1
##ram 1
Thus 1
concern 1
putting 1
inches 1
map 1
classical 1
Allen 1
crazy 1
valley 1
Space 1
softly 1
##my 1
pool 1
worldwide 1
climate 1
experienced 1
neighborhood 1
scheduled 1
neither 1
fleet 1
1908 1
Girl 1
##J 1
Part 1
engines 1
locations 1
darkness 1
Revolution 1
establishment 1
lawyer 1
objects 1
apparently 1
Queensland 1
Entertainment 1
bill 1
mark 1
Television 1
##ong 1
pale 1
demand 1
Hotel 1
selection 1
##rn 1
##ino 1
Labour 1
Liberal 1
burned 1
Mom 1
merged 1
Arizona 1
request 1
##lia 1
##light 1
hole 1
employees 1
##ical 1
incorporated 1
95 1
independence 1
Walker 1
covering 1
joining 1
##ica 1
task 1
papers 1
backing 1
sell 1
biggest 1
6th 1
strike 1
establish 1
##ō 1
gently 1
59 1
Orchestra 1
Winter 1
protein 1
Juan 1
locked 1
dates 1
Boy 1
aren 1
shooting 1
Luke 1
solid 1
charged 1
Prior 1
resigned 1
interior 1
garden 1
spoken 1
improve 1
wonder 1
promote 1
hidden 1
##med 1
combination 1
Hollywood 1
Swiss 1
consider 1
##ks 1
Lincoln 1
literary 1
drawing 1
Marine 1
weapon 1
Victor 1
Trust 1
Maryland 1
properties 1
##ara 1
exhibition 1
understood 1
hung 1
Tell 1
installed 1
loud 1
fashion 1
affected 1
junior 1
landing 1
flowers 1
##he 1
Internet 1
beach 1
Heart 1
tries 1
Mayor 1
programme 1
800 1
wins 1
noise 1
##ster 1
##ory 1
58 1
contain 1
fair 1
delivered 1
##ul 1
wedding 1
Square 1
advance 1
behavior 1
Program 1
Oregon 1
##rk 1
residence 1
realize 1
certainly 1
hill 1
Houston 1
57 1
indicated 1
##water 1
wounded 1
Village 1
massive 1
Moore 1
thousands 1
personnel 1
dating 1
opera 1
poetry 1
##her 1
causes 1
feelings 1
Frederick 1
applications 1
push 1
approached 1
foundation 1
pleasure 1
sale 1
fly 1
gotten 1
northeast 1
costs 1
raise 1
paintings 1
##ney 1
views 1
horses 1
formal 1
Arab 1
hockey 1
typical 1
representative 1
rising 1
##des 1
clock 1
stadium 1
shifted 1
Dad 1
peak 1
Fame 1
vice 1
disappeared 1
users 1
Way 1
Naval 1
prize 1
hoping 1
values 1
evil 1
Bell 1
consisting 1
##ón 1
Regional 1
##ics 1
improved 1
circle 1
carefully 1
broad 1
##ini 1
Fine 1
maintain 1
operate 1
offering 1
mention 1
Death 1
stupid 1
Through 1
Princess 1
attend 1
interests 1
ruled 1
somewhat 1
wings 1
roads 1
grounds 1
##ual 1
Greece 1
Champions 1
facing 1
hide 1
voted 1
require 1
Dark 1
Matthew 1
credit 1
sighed 1
separated 1
manner 1
##ile 1
Boys 1
1905 1
committed 1
impossible 1
lip 1
candidates 1
7th 1
Bruce 1
arranged 1
Islamic 1
courses 1
criminal 1
##ened 1
smell 1
##bed 1
08 1
consecutive 1
##ening 1
proper 1
purchase 1
weak 1
Prix 1
1906 1
aside 1
introduction 1
Look 1
##ku 1
changing 1
budget 1
resistance 1
factory 1
Forces 1
agency 1
##tone 1
northwest 1
user 1
1907 1
stating 1
##one 1
sport 1
Design 1
environmental 1
cards 1
concluded 1
Carl 1
250 1
accused 1
##ology 1
Girls 1
sick 1
intelligence 1
Margaret 1
responsibility 1
Guard 1
##tus 1
17th 1
sq 1
goods 1
1909 1
hate 1
##ek 1
capture 1
stores 1
Gray 1
comic 1
Modern 1
Silver 1
Andy 1
electronic 1
wheel 1
##ied 1
Deputy 1
##bs 1
Czech 1
zone 1
choose 1
constant 1
reserve 1
##lle 1
Tokyo 1
spirit 1
sub 1
degrees 1
flew 1
pattern 1
compete 1
Dance 1
##ik 1
secretary 1
Imperial 1
99 1
reduce 1
Hungarian 1
confused 1
##rin 1
Pierre 1
describes 1
regularly 1
Rachel 1
85 1
landed 1
passengers 1
##ise 1
##sis 1
historian 1
meters 1
Youth 1
##ud 1
participate 1
##cing 1
arrival 1
tired 1
Mother 1
##gy 1
jumped 1
Kentucky 1
faces 1
feed 1
Israeli 1
Ocean 1
##Q 1
##án 1
plus 1
snow 1
techniques 1
plate 1
sections 1
falls 1
jazz 1
##ris 1
tank 1
loan 1
repeated 1
opinion 1
##res 1
unless 1
rugby 1
journal 1
Lawrence 1
moments 1
shock 1
distributed 1
##ded 1
adjacent 1
Argentina 1
crossing 1
uncle 1
##ric 1
Detroit 1
communication 1
mental 1
tomorrow 1
session 1
Emma 1
Without 1
##gen 1
Miami 1
charges 1
Administration 1
hits 1
coat 1
protected 1
Cole 1
invasion 1
priest 1
09 1
Gary 1
enjoyed 1
plot 1
measure 1
bound 1
friendly 1
throw 1
musician 1
##lon 1
##ins 1
Age 1
knife 1
damaged 1
birds 1
driven 1
lit 1
ears 1
breathing 1
Arabic 1
Jan 1
faster 1
Jonathan 1
##gate 1
Independent 1
starred 1
Harris 1
teachers 1
Alice 1
sequence 1
mph 1
file 1
translated 1
decide 1
determine 1
Review 1
documents 1
sudden 1
threatened 1
##ft 1
bear 1
distinct 1
decade 1
burning 1
##sky 1
1930s 1
replace 1
begun 1
extension 1
##time 1
1904 1
equivalent 1
accompanied 1
Christopher 1
Danish 1
##ye 1
Besides 1
##more 1
persons 1
fallen 1
Rural 1
roughly 1
saved 1
willing 1
ensure 1
Belgium 1
05 1
musicians 1
##ang 1
giant 1
Six 1
Retrieved 1
worst 1
purposes 1
##bly 1
mountains 1
seventh 1
slipped 1
brick 1
07 1
##py 1
somehow 1
Carter 1
Iraq 1
cousin 1
favor 1
islands 1
journey 1
FIFA 1
contrast 1
planet 1
vs 1
calm 1
##ings 1
concrete 1
branches 1
gray 1
profit 1
Russell 1
##ae 1
##ux 1
##ens 1
philosophy 1
businesses 1
talked 1
parking 1
##ming 1
owners 1
Place 1
##tle 1
agricultural 1
Kate 1
06 1
southeast 1
draft 1
Eddie 1
earliest 1
forget 1
Dallas 1
Commonwealth 1
edited 1
66 1
inner 1
ed 1
operates 1
16th 1
Harvard 1
assistance 1
##si 1
designs 1
Take 1
bathroom 1
indicate 1
CEO 1
Command 1
Louisiana 1
1902 1
Dublin 1
Books 1
1901 1
tropical 1
1903 1
##tors 1
Places 1
tie 1
progress 1
forming 1
solution 1
62 1
letting 1
##ery 1
studying 1
##jo 1
duties 1
Baseball 1
taste 1
Reserve 1
##ru 1
Ann 1
##gh 1
visible 1
##vi 1
notably 1
link 1
NCAA 1
southwest 1
Never 1
storage 1
mobile 1
writers 1
favorite 1
Pro 1
pages 1
truly 1
count 1
##tta 1
string 1
kid 1
98 1
Ross 1
row 1
##idae 1
Kennedy 1
##tan 1
Hockey 1
hip 1
waist 1
grandfather 1
listen 1
##ho 1
feels 1
busy 1
72 1
stream 1
obvious 1
cycle 1
shaking 1
Knight 1
##ren 1
Carlos 1
painter 1
trail 1
web 1
linked 1
04 1
Palace 1
existed 1
##ira 1
responded 1
closing 1
End 1
examples 1
Marshall 1
weekend 1
jaw 1
Denmark 1
lady 1
township 1
medium 1
chin 1
Story 1
option 1
fifteen 1
Moon 1
represents 1
makeup 1
investment 1
jump 1
childhood 1
Oklahoma 1
roll 1
normally 1
Ten 1
Operation 1
Graham 1
Seattle 1
Atlanta 1
paused 1
promised 1
rejected 1
treated 1
returns 1
flag 1
##ita 1
Hungary 1
danger 1
glad 1
movements 1
visual 1
subjects 1
credited 1
soldier 1
Norman 1
ill 1
translation 1
José 1
Quebec 1
medicine 1
warning 1
theater 1
praised 1
municipal 1
01 1
commune 1
churches 1
acid 1
folk 1
8th 1
testing 1
add 1
survive 1
Sound 1
devices 1
residential 1
severe 1
presidential 1
Mississippi 1
Austin 1
Perhaps 1
Charlotte 1
hanging 1
Montreal 1
grin 1
##ten 1
racial 1
partnership 1
shoot 1
shift 1
##nie 1
Les 1
downtown 1
Brothers 1
Garden 1
matters 1
restored 1
mirror 1
forever 1
winners 1
rapidly 1
poverty 1
##ible 1
Until 1
DC 1
faith 1
hundreds 1
Real 1
Ukraine 1
Nelson 1
balance 1
Adams 1
contest 1
relative 1
ethnic 1
Edinburgh 1
composition 1
##nts 1
emergency 1
##van 1
marine 1
reputation 1
Down 1
pack 1
12th 1
Communist 1
Mountains 1
pro 1
stages 1
measures 1
##ld 1
ABC 1
Li 1
victims 1
benefit 1
Iowa 1
Broadway 1
gathered 1
rating 1
Defense 1
classic 1
##ily 1
ceiling 1
##ions 1
snapped 1
Everything 1
constituency 1
Franklin 1
Thompson 1
Stewart 1
entering 1
Judge 1
forth 1
##sk 1
wanting 1
smiling 1
moves 1
tunnel 1
premiered 1
grass 1
unusual 1
Ukrainian 1
bird 1
Friday 1
tail 1
Portugal 1
coal 1
element 1
Fred 1
guards 1
Senator 1
collaboration 1
beauty 1
Wood 1
chemical 1
beer 1
justice 1
signs 1
##Z 1
sees 1
##zi 1
Puerto 1
##zed 1
96 1
smooth 1
Bowl 1
gift 1
limit 1
97 1
heading 1
Source 1
wake 1
requires 1
Ed 1
Constitution 1
factor 1
Lane 1
factors 1
adding 1
Note 1
cleared 1
pictures 1
pink 1
##ola 1
Kent 1
Local 1
Singh 1
moth 1
Ty 1
##ture 1
courts 1
Seven 1
temporary 1
involving 1
Vienna 1
emerged 1
fishing 1
agree 1
defensive 1
stuck 1
secure 1
Tamil 1
##ick 1
bottle 1
03 1
Player 1
instruments 1
Spring 1
patient 1
flesh 1
contributions 1
cry 1
Malaysia 1
120 1
Global 1
da 1
Alabama 1
Within 1
##work 1
debuted 1
expect 1
Cleveland 1
concerns 1
retained 1
horror 1
10th 1
spending 1
Peace 1
Transport 1
grand 1
Crown 1
instance 1
institution 1
acted 1
Hills 1
mounted 1
Campbell 1
shouldn 1
1898 1
##ably 1
chamber 1
soil 1
88 1
Ethan 1
sand 1
cheeks 1
##gi 1
marry 1
61 1
weekly 1
classification 1
DNA 1
Elementary 1
Roy 1
definitely 1
Soon 1
Rights 1
gate 1
suggests 1
aspects 1
imagine 1
golden 1
beating 1
Studios 1
Warren 1
differences 1
significantly 1
glance 1
occasionally 1
##od 1
clothing 1
Assistant 1
depth 1
sending 1
possibility 1
mode 1
prisoners 1
requirements 1
daughters 1
dated 1
Representatives 1
prove 1
guilty 1
interesting 1
smoke 1
cricket 1
93 1
##ates 1
rescue 1
Connecticut 1
underground 1
Opera 1
13th 1
reign 1
##ski 1
thanks 1
leather 1
equipped 1
routes 1
fan 1
##ans 1
script 1
Wright 1
bishop 1
Welsh 1
jobs 1
faculty 1
eleven 1
Railroad 1
appearing 1
anniversary 1
Upper 1
##down 1
anywhere 1
Rugby 1
Metropolitan 1
Meanwhile 1
Nicholas 1
champions 1
forehead 1
mining 1
drinking 1
76 1
Jerry 1
membership 1
Brazilian 1
Wild 1
Rio 1
scheme 1
Unlike 1
strongly 1
##bility 1
fill 1
##rian 1
easier 1
MP 1
Hell 1
##sha 1
Stanley 1
banks 1
Baron 1
##ique 1
Robinson 1
67 1
Gabriel 1
Austrian 1
Wayne 1
exposed 1
##wan 1
Alfred 1
1899 1
manage 1
mix 1
visitors 1
eating 1
##rate 1
Sean 1
commission 1
Cemetery 1
policies 1
Camp 1
parallel 1
traveled 1
guitarist 1
02 1
supplies 1
couples 1
poem 1
blocks 1
Rick 1
Training 1
Energy 1
achieve 1
appointment 1
Wing 1
Jamie 1
63 1
novels 1
##em 1
1890 1
songwriter 1
Base 1
Jay 1
##gar 1
naval 1
scared 1
miss 1
labor 1
technique 1
crisis 1
Additionally 1
backed 1
destroy 1
seriously 1
tools 1
tennis 1
91 1
god 1
##ington 1
continuing 1
steam 1
obviously 1
Bobby 1
adapted 1
fifty 1
enjoy 1
Jacob 1
publishing 1
column 1
##ular 1
Baltimore 1
Donald 1
Liverpool 1
92 1
drugs 1
movies 1
##ock 1
Heritage 1
##je 1
##istic 1
vocal 1
strategy 1
gene 1
advice 1
##bi 1
Ottoman 1
riding 1
##side 1
Agency 1
Indonesia 1
11th 1
laughing 1
sleeping 1
und 1
muttered 1
listening 1
deck 1
tip 1
77 1
ownership 1
grey 1
Claire 1
deeply 1
provincial 1
popularity 1
Cooper 1
##á 1
Emily 1
##sed 1
designer 1
Murray 1
describe 1
Danny 1
Around 1
Parker 1
##dae 1
68 1
rates 1
suffering 1
considerable 1
78 1
nervous 1
powered 1
tons 1
circumstances 1
wished 1
belonged 1
Pittsburgh 1
flows 1
9th 1
##use 1
belt 1
81 1
useful 1
15th 1
context 1
List 1
Dead 1
Iron 1
seek 1
Season 1
worn 1
frequency 1
legislation 1
replacement 1
memories 1
Tournament 1
Again 1
Barry 1
organisation 1
copy 1
Gulf 1
waters 1
meets 1
struggle 1
Oliver 1
1895 1
Susan 1
protest 1
kick 1
Alliance 1
components 1
1896 1
Tower 1
Windows 1
demanded 1
regiment 1
sentence 1
Woman 1
Logan 1
Referee 1
hosts 1
debate 1
knee 1
Blood 1
##oo 1
universities 1
practices 1
Ward 1
ranking 1
correct 1
happening 1
Vincent 1
attracted 1
classified 1
##stic 1
processes 1
immediate 1
waste 1
increasingly 1
Helen 1
##po 1
Lucas 1
Phil 1
organ 1
1897 1
tea 1
suicide 1
actors 1
lb 1
crash 1
approval 1
waves 1
##ered 1
hated 1
grip 1
700 1
amongst 1
69 1
74 1
hunting 1
dying 1
lasted 1
illegal 1
##rum 1
stare 1
defeating 1
##gs 1
shrugged 1
°C 1
Jon 1
Count 1
Orleans 1
94 1
affairs 1
formally 1
##and 1
##ves 1
criticized 1
Disney 1
Vol 1
successor 1
tests 1
scholars 1
palace 1
Would 1
celebrated 1
rounds 1
grant 1
Schools 1
Such 1
commanded 1
demon 1
Romania 1
##all 1
Karl 1
71 1
##yn 1
84 1
Daily 1
totally 1
Medicine 1
fruit 1
Die 1
upset 1
Lower 1
Conservative 1
14th 1
Mitchell 1
escaped 1
shoes 1
Morris 1
##tz 1
queen 1
harder 1
prime 1
Thanks 1
indeed 1
Sky 1
authors 1
rocks 1
definition 1
Nazi 1
accounts 1
printed 1
experiences 1
##ters 1
divisions 1
Cathedral 1
denied 1
depending 1
Express 1
##let 1
73 1
appeal 1
loose 1
colors 1
filed 1
##isation 1
gender 1
##ew 1
throne 1
forests 1
Finland 1
domain 1
boats 1
Baker 1
squadron 1
shore 1
remove 1
##ification 1
careful 1
wound 1
railroad 1
82 1
seeking 1
agents 1
##ved 1
Blues 1
##off 1
customers 1
ignored 1
net 1
##ction 1
hiding 1
Originally 1
declined 1
##ess 1
franchise 1
eliminated 1
NBA 1
merely 1
pure 1
appropriate 1
visiting 1
forty 1
markets 1
offensive 1
coverage 1
cave 1
##nia 1
spell 1
##lar 1
Benjamin 1
##ire 1
Convention 1
filmed 1
Trade 1
##sy 1
##ct 1
Having 1
palm 1
1889 1
Evans 1
intense 1
plastic 1
Julia 1
document 1
jeans 1
vessel 1
SR 1
##fully 1
proposal 1
Birmingham 1
le 1
##ative 1
assembly 1
89 1
fund 1
lock 1
1893 1
AD 1
meetings 1
occupation 1
modified 1
Years 1
odd 1
aimed 1
reform 1
Mission 1
Works 1
shake 1
cat 1
exception 1
convinced 1
executed 1
pushing 1
dollars 1
replacing 1
soccer 1
manufacturing 1
##ros 1
expensive 1
kicked 1
minimum 1
Josh 1
coastal 1
Chase 1
ha 1
Thailand 1
publications 1
deputy 1
Sometimes 1
Angel 1
effectively 1
##illa 1
criticism 1
conduct 1
Serbian 1
landscape 1
NY 1
absence 1
passage 1
##ula 1
Blake 1
Indians 1
1892 1
admit 1
Trophy 1
##ball 1
Next 1
##rated 1
##ians 1
charts 1
kW 1
orchestra 1
79 1
heritage 1
1894 1
rough 1
exists 1
boundary 1
Bible 1
Legislative 1
moon 1
medieval 1
##over 1
cutting 1
print 1
##ett 1
birthday 1
##hood 1
destruction 1
Julian 1
injuries 1
influential 1
sisters 1
raising 1
statue 1
colour 1
dancing 1
characteristics 1
orange 1
##ok 1
##aries 1
Ken 1
colonial 1
twin 1
Larry 1
surviving 1
##shi 1
Barbara 1
personality 1
entertainment 1
assault 1
##ering 1
talent 1
happens 1
license 1
86 1
couch 1
Century 1
soundtrack 1
shower 1
swimming 1
cash 1
Staff 1
bent 1
1885 1
bay 1
lunch 1
##lus 1
dozen 1
vessels 1
CBS 1
greatly 1
critic 1
Test 1
symbol 1
panel 1
shell 1
output 1
reaches 1
87 1
Front 1
motor 1
ocean 1
##era 1
##ala 1
maintenance 1
violent 1
scent 1
Limited 1
Las 1
Hope 1
Theater 1
Which 1
survey 1
Robin 1
recordings 1
compilation 1
##ward 1
bomb 1
insurance 1
Authority 1
sponsored 1
satellite 1
Jazz 1
refer 1
stronger 1
blow 1
whilst 1
Wrestling 1
suggest 1
##rie 1
climbed 1
##els 1
voices 1
shopping 1
1891 1
Neil 1
discovery 1
##vo 1
##ations 1
burst 1
Baby 1
peaked 1
Brooklyn 1
knocked 1
lift 1
##try 1
false 1
nations 1
Hugh 1
Catherine 1
preserved 1
distinguished 1
terminal 1
resolution 1
ratio 1
pants 1
cited 1
competitions 1
completion 1
DJ 1
bone 1
uniform 1
schedule 1
shouted 1
83 1
1920s 1
rarely 1
Basketball 1
Taiwan 1
artistic 1
bare 1
vampires 1
arrest 1
Utah 1
Marcus 1
assist 1
gradually 1
qualifying 1
Victorian 1
vast 1
rival 1
Warner 1
Terry 1
Economic 1
##cia 1
losses 1
boss 1
versus 1
audio 1
runner 1
apply 1
surgery 1
Play 1
twisted 1
comfortable 1
##cs 1
Everyone 1
guests 1
##lt 1
Harrison 1
UEFA 1
lowered 1
occasions 1
##lly 1
##cher 1
chapter 1
youngest 1
eighth 1
Culture 1
##room 1
##stone 1
1888 1
Songs 1
Seth 1
Digital 1
involvement 1
expedition 1
relationships 1
signing 1
1000 1
fault 1
annually 1
circuit 1
afterwards 1
meat 1
creature 1
##ou 1
cable 1
Bush 1
##net 1
Hispanic 1
rapid 1
gonna 1
figured 1
extent 1
considering 1
cried 1
##tin 1
sigh 1
dynasty 1
##ration 1
cabinet 1
Richmond 1
stable 1
##zo 1
1864 1
Admiral 1
Unit 1
occasion 1
shares 1
badly 1
longest 1
##ify 1
Connor 1
extreme 1
wondering 1
girlfriend 1
Studio 1
##tions 1
1865 1
tribe 1
exact 1
muscles 1
hat 1
Luis 1
Orthodox 1
decisions 1
amateur 1
description 1
##lis 1
hips 1
kingdom 1
##ute 1
Portland 1
whereas 1
Bachelor 1
outer 1
discussion 1
partly 1
Arkansas 1
1880 1
dreams 1
perfectly 1
Lloyd 1
##bridge 1
asleep 1
##tti 1
Greg 1
permission 1
trading 1
pitch 1
mill 1
Stage 1
liquid 1
Keith 1
##tal 1
wolf 1
processing 1
stick 1
Jerusalem 1
profile 1
rushed 1
spiritual 1
argument 1
Ice 1
Guy 1
till 1
Delhi 1
roots 1
Section 1
missions 1
Glasgow 1
penalty 1
NBC 1
encouraged 1
identify 1
keyboards 1
##zing 1
##ston 1
disc 1
plain 1
informed 1
Bernard 1
thinks 1
fled 1
Justin 1
##day 1
newspapers 1
##wick 1
Ralph 1
##zer 1
unlike 1
Stars 1
artillery 1
##ified 1
recovered 1
arrangement 1
searching 1
##pers 1
##tory 1
##rus 1
deaths 1
Egyptian 1
diameter 1
##í 1
marketing 1
corporate 1
teach 1
marks 1
Turner 1
staying 1
hallway 1
Sebastian 1
chapel 1
naked 1
mistake 1
possession 1
1887 1
dominated 1
jacket 1
creative 1
Fellow 1
Falls 1
Defence 1
suspended 1
employment 1
##rry 1
Hebrew 1
Hudson 1
Week 1
Wars 1
recognize 1
Natural 1
controversial 1
Tommy 1
thank 1
Athletic 1
benefits 1
decline 1
intention 1
##ets 1
Lost 1
Wall 1
participation 1
elevation 1
supports 1
parliament 1
1861 1
concentration 1
Movement 1
##IS 1
competing 1
stops 1
behalf 1
##mm 1
limits 1
funded 1
discuss 1
Collins 1
departure 1
obtain 1
woods 1
latest 1
universe 1
alcohol 1
Laura 1
rush 1
blade 1
funny 1
Dennis 1
forgotten 1
Amy 1
Symphony 1
apparent 1
graduating 1
1862 1
Rob 1
Grey 1
collections 1
Mason 1
emotions 1
##ugh 1
literally 1
Any 1
counties 1
1863 1
nomination 1
fighter 1
habitat 1
respond 1
external 1
Capital 1
exit 1
Video 1
carbon 1
sharing 1
Bad 1
opportunities 1
Perry 1
photo 1
##mus 1
Orange 1
posted 1
remainder 1
transportation 1
portrayed 1
Labor 1
recommended 1
percussion 1
rated 1
Grade 1
rivers 1
partially 1
suspected 1
strip 1
adults 1
button 1
struggled 1
intersection 1
Canal 1
##ability 1
poems 1
claiming 1
Madrid 1
1886 1
Together 1
##our 1
Much 1
Vancouver 1
instrument 1
instrumental 1
1870 1
mad 1
angle 1
Control 1
Phoenix 1
Leo 1
Communications 1
mail 1
##ette 1
##ev 1
preferred 1
adaptation 1
alleged 1
discussed 1
deeper 1
##ane 1
Yet 1
Monday 1
volumes 1
thrown 1
Zane 1
##logy 1
displayed 1
rolling 1
dogs 1
Along 1
Todd 1
##ivity 1
withdrew 1
representation 1
belief 1
##sia 1
crown 1
Late 1
Short 1
hardly 1
grinned 1
romantic 1
Pete 1
##ken 1
networks 1
enemies 1
Colin 1
Eventually 1
Side 1
donated 1
##su 1
steady 1
grab 1
guide 1
Finnish 1
Milan 1
pregnant 1
controversy 1
reminded 1
1884 1
Stuart 1
##bach 1
##ade 1
Race 1
Belgian 1
LP 1
Production 1
Zone 1
lieutenant 1
infantry 1
Child 1
confusion 1
sang 1
resident 1
##ez 1
victim 1
1881 1
channels 1
Ron 1
businessman 1
##gle 1
Dick 1
colony 1
pace 1
producers 1
##ese 1
agencies 1
Craig 1
Lucy 1
Very 1
centers 1
Yorkshire 1
photography 1
##ched 1
Album 1
championships 1
Metro 1
substantial 1
Standard 1
terrible 1
directors 1
contribution 1
advertising 1
emotional 1
##its 1
layer 1
segment 1
sir 1
folded 1
Roberts 1
ceased 1
Hampshire 1
##ray 1
detailed 1
partners 1
m² 1
##pt 1
Beth 1
genre 1
commented 1
generated 1
remote 1
aim 1
Hans 1
credits 1
concerts 1
periods 1
breakfast 1
gay 1
shadow 1
defence 1
Too 1
Had 1
transition 1
Afghanistan 1
##book 1
eggs 1
defend 1
##lli 1
writes 1
Systems 1
bones 1
mess 1
seed 1
scientists 1
Shortly 1
Romanian 1
##zy 1
Freedom 1
muscle 1
hero 1
parent 1
agriculture 1
checked 1
Islam 1
Bristol 1
Freyja 1
Arena 1
cabin 1
Germans 1
electricity 1
ranks 1
viewed 1
medals 1
Wolf 1
associate 1
Madison 1
Sorry 1
fort 1
Chile 1
detail 1
widespread 1
attorney 1
boyfriend 1
##nan 1
Students 1
Spencer 1
##ig 1
bite 1
Maine 1
demolished 1
Lisa 1
erected 1
Someone 1
operational 1
Commissioner 1
NHL 1
Coach 1
Bar 1
forcing 1
Dream 1
Rico 1
cargo 1
Murphy 1
##fish 1
##ase 1
distant 1
##master 1
##ora 1
Organization 1
doorway 1
Steven 1
traded 1
electrical 1
frequent 1
##wn 1
Branch 1
Sure 1
1882 1
placing 1
Manhattan 1
attending 1
attributed 1
excellent 1
pounds 1
ruling 1
principles 1
component 1
Mediterranean 1
Vegas 1
machines 1
percentage 1
infrastructure 1
throwing 1
affiliated 1
Kings 1
secured 1
Caribbean 1
Track 1
Ted 1
honour 1
opponent 1
Virgin 1
Construction 1
grave 1
produces 1
Challenge 1
stretched 1
paying 1
murmured 1
##ata 1
integrated 1
waved 1
Nathan 1
##ator 1
transmission 1
videos 1
##yan 1
##hu 1
Nova 1
descent 1
AM 1
Harold 1
conservative 1
Therefore 1
venue 1
competitive 1
##ui 1
conclusion 1
funeral 1
confidence 1
releases 1
scholar 1
##sson 1
Treaty 1
stress 1
mood 1
##sm 1
Mac 1
residing 1
Action 1
Fund 1
##ship 1
animated 1
fitted 1
##kar 1
defending 1
voting 1
tend 1
##berry 1
answers 1
believes 1
##ci 1
helps 1
Aaron 1
##tis 1
themes 1
##lay 1
populations 1
Players 1
stroke 1
Trinity 1
electoral 1
paint 1
abroad 1
charity 1
keys 1
Fair 1
##pes 1
interrupted 1
participants 1
murdered 1
Days 1
supporters 1
##ab 1
expert 1
borders 1
mate 1
##llo 1
solar 1
architectural 1
tension 1
##bling 1
Parish 1
tape 1
operator 1
Cultural 1
Clinton 1
indicates 1
publisher 1
ordinary 1
sugar 1
arrive 1
rifle 1
acoustic 1
##uring 1
assets 1
##shire 1
SS 1
sufficient 1
options 1
HMS 1
Classic 1
bars 1
rebuilt 1
governments 1
Beijing 1
reporter 1
screamed 1
Abbey 1
crying 1
mechanical 1
instantly 1
communications 1
Political 1
cemetery 1
Cameron 1
Stop 1
representatives 1
USS 1
texts 1
mathematics 1
innings 1
civilian 1
Serbia 1
##hill 1
practical 1
patterns 1
dust 1
Faculty 1
debt 1
##end 1
##cus 1
junction 1
suppose 1
experimental 1
Computer 1
Food 1
wrist 1
abuse 1
dealing 1
bigger 1
cap 1
principle 1
##pin 1
Muhammad 1
Fleet 1
Collection 1
attempting 1
dismissed 1
##burn 1
regime 1
Herbert 1
##ua 1
shadows 1
1883 1
Eve 1
Lanka 1
1878 1
Performance 1
fictional 1
##lock 1
Noah 1
Run 1
Voivodeship 1
exercise 1
broadcasting 1
##fer 1
RAF 1
Magic 1
Bangladesh 1
suitable 1
##low 1
##del 1
styles 1
toured 1
Code 1
identical 1
links 1
insisted 1
110 1
flash 1
Model 1
slave 1
Derek 1
Rev 1
fairly 1
Greater 1
sole 1
##lands 1
connecting 1
zero 1
bench 1
##ome 1
switched 1
Fall 1
Owen 1
yours 1
Electric 1
shocked 1
convention 1
##bra 1
climb 1
memorial 1
swept 1
Racing 1
decides 1
belong 1
##nk 1
parliamentary 1
##und 1
ages 1
proof 1
##dan 1
delivery 1
1860 1
##ów 1
sad 1
publicly 1
leaning 1
Archbishop 1
dirt 1
##ose 1
categories 1
1876 1
burn 1
##bing 1
requested 1
Guinea 1
Historical 1
rhythm 1
relation 1
##heim 1
ye 1
pursue 1
merchant 1
##mes 1
lists 1
continuous 1
frowned 1
colored 1
tool 1
gods 1
involves 1
Duncan 1
photographs 1
Cricket 1
slight 1
Gregory 1
atmosphere 1
wider 1
Cook 1
##tar 1
essential 1
Being 1
FA 1
emperor 1
wealthy 1
nights 1
##bar 1
licensed 1
Hawaii 1
viewers 1
Language 1
load 1
nearest 1
milk 1
kilometers 1
platforms 1
##ys 1
territories 1
Rogers 1
sheet 1
Rangers 1
contested 1
##lation 1
isolated 1
assisted 1
swallowed 1
Small 1
Contemporary 1
Technical 1
Edwards 1
express 1
Volume 1
endemic 1
##ei 1
tightly 1
Whatever 1
indigenous 1
Colombia 1
##ulation 1
hp 1
characterized 1
##ida 1
Nigeria 1
Professional 1
duo 1
Soccer 1
slaves 1
Farm 1
smart 1
Attorney 1
Attendance 1
Common 1
salt 1
##vin 1
tribes 1
nod 1
sentenced 1
bid 1
sample 1
Drive 1
switch 1
instant 1
21st 1
Cuba 1
drunk 1
Alaska 1
proud 1
awareness 1
hitting 1
sessions 1
Thai 1
locally 1
elsewhere 1
Dragon 1
gentle 1
touching 1
##lee 1
Springs 1
Universal 1
Latino 1
spin 1
1871 1
Chart 1
recalled 1
Type 1
pointing 1
##ii 1
lowest 1
##ser 1
grandmother 1
Adelaide 1
Jacques 1
spotted 1
Buffalo 1
restoration 1
Son 1
Joan 1
farmers 1
Lily 1
1879 1
lucky 1
##dal 1
luck 1
eldest 1
##rant 1
Market 1
drummer 1
deployed 1
warned 1
prince 1
sing 1
amazing 1
sailed 1
##oon 1
1875 1
Primary 1
traveling 1
Masters 1
Sara 1
cattle 1
Trail 1
gang 1
Further 1
desert 1
relocated 1
##tch 1
##ord 1
Flight 1
illness 1
Munich 1
ninth 1
repair 1
Singles 1
##lated 1
Tyler 1
tossed 1
boots 1
Work 1
sized 1
earning 1
shoved 1
magazines 1
housed 1
dam 1
researchers 1
Former 1
spun 1
premiere 1
spaces 1
organised 1
wealth 1
crimes 1
devoted 1
stones 1
Urban 1
automatic 1
hop 1
affect 1
outstanding 1
tanks 1
mechanism 1
Muslims 1
Ms 1
shots 1
argue 1
Jeremy 1
connections 1
Armenian 1
increases 1
rubbed 1
1867 1
retail 1
gear 1
Pan 1
bonus 1
jurisdiction 1
weird 1
concerning 1
whisper 1
##gal 1
Microsoft 1
tenure 1
hills 1
www 1
Gmina 1
porch 1
files 1
reportedly 1
venture 1
Storm 1
##ence 1
Nature 1
killer 1
panic 1
fate 1
Secret 1
Wang 1
scream 1
drivers 1
belongs 1
Chamber 1
clan 1
monument 1
mixing 1
Peru 1
bet 1
Riley 1
Friends 1
Isaac 1
submarine 1
1877 1
130 1
judges 1
harm 1
ranging 1
affair 1
prepare 1
pupils 1
householder 1
Policy 1
decorated 1
Nation 1
slammed 1
activist 1
implemented 1
Room 1
qualify 1
Publishing 1
establishing 1
Baptist 1
touring 1
subsidiary 1
##nal 1
legend 1
1872 1
laughter 1
PC 1
Athens 1
settlers 1
ties 1
dual 1
dear 1
Draft 1
strategic 1
Ivan 1
reveal 1
closest 1
dominant 1
Ah 1
##ult 1
Denver 1
bond 1
boundaries 1
drafted 1
tables 1
##TV 1
eyed 1
Edition 1
##ena 1
1868 1
belonging 1
1874 1
Industrial 1
cream 1
Ridge 1
Hindu 1
scholarship 1
Ma 1
opens 1
initiated 1
##ith 1
yelled 1
compound 1
random 1
Throughout 1
grades 1
physics 1
sank 1
grows 1
exclusively 1
settle 1
Saints 1
brings 1
Amsterdam 1
Make 1
Hart 1
walks 1
battery 1
violin 1
##born 1
explanation 1
##ware 1
1873 1
##har 1
provinces 1
thrust 1
exclusive 1
sculpture 1
shops 1
##fire 1
VI 1
constitution 1
Barcelona 1
monster 1
Devon 1
Jefferson 1
Sullivan 1
bow 1
##din 1
desperate 1
##ć 1
Julie 1
##mon 1
##ising 1
terminus 1
Jesse 1
abilities 1
golf 1
##ple 1
##via 1
##away 1
Raymond 1
measured 1
jury 1
firing 1
revenue 1
suburb 1
Bulgarian 1
1866 1
##cha 1
timber 1
Things 1
##weight 1
Morning 1
spots 1
Alberta 1
Data 1
explains 1
Kyle 1
friendship 1
raw 1
tube 1
demonstrated 1
aboard 1
immigrants 1
reply 1
breathe 1
Manager 1
ease 1
##ban 1
##dia 1
Diocese 1
##vy 1
##ía 1
pit 1
ongoing 1
##lie 1
Gilbert 1
Costa 1
1940s 1
Report 1
voters 1
cloud 1
traditions 1
##MS 1
gallery 1
Jennifer 1
swung 1
Broadcasting 1
Does 1
diverse 1
reveals 1
arriving 1
initiative 1
##ani 1
Give 1
Allied 1
Pat 1
Outstanding 1
monastery 1
blind 1
Currently 1
##war 1
bloody 1
stopping 1
focuses 1
managing 1
Florence 1
Harvey 1
creatures 1
900 1
breast 1
internet 1
Artillery 1
purple 1
##mate 1
alliance 1
excited 1
fee 1
Brisbane 1
lifetime 1
Private 1
##aw 1
##nis 1
##gue 1
##ika 1
phrase 1
regulations 1
reflected 1
manufactured 1
conventional 1
pleased 1
client 1
##ix 1
##ncy 1
Pedro 1
reduction 1
##con 1
welcome 1
jail 1
comfort 1
Iranian 1
Norfolk 1
Dakota 1
##tein 1
evolution 1
everywhere 1
Initially 1
sensitive 1
Olivia 1
Oscar 1
implementation 1
sits 1
stolen 1
demands 1
slide 1
grandson 1
##ich 1
merger 1
##mic 1
Spirit 1
##° 1
ticket 1
root 1
difficulty 1
Nevada 1
##als 1
lined 1
Dylan 1
Original 1
Call 1
biological 1
EU 1
dramatic 1
##hn 1
Operations 1
treaty 1
gap 1
##list 1
Am 1
Romanized 1
moral 1
Butler 1
perspective 1
Furthermore 1
Manuel 1
absolutely 1
unsuccessful 1
disaster 1
dispute 1
preparation 1
tested 1
discover 1
##ach 1
shield 1
squeezed 1
brushed 1
battalion 1
Arnold 1
##ras 1
superior 1
treat 1
clinical 1
##so 1
Apple 1
Syria 1
Cincinnati 1
package 1
flights 1
editions 1
Leader 1
minority 1
wonderful 1
hang 1
Pop 1
Philippine 1
telephone 1
bell 1
honorary 1
##mar 1
balls 1
Democrat 1
dirty 1
thereafter 1
collapsed 1
Inside 1
slip 1
wrestling 1
##ín 1
listened 1
regard 1
bowl 1
None 1
Sport 1
completing 1
trapped 1
##view 1
copper 1
Wallace 1
Honor 1
blame 1
Peninsula 1
##ert 1
##oy 1
Anglo 1
bearing 1
simultaneously 1
honest 1
##ias 1
Mix 1
Got 1
speaker 1
voiced 1
impressed 1
prices 1
error 1
1869 1
##feld 1
trials 1
Nine 1
Industry 1
substitute 1
Municipal 1
departed 1
slept 1
##ama 1
Junction 1
Socialist 1
flower 1
dropping 1
comment 1
fantasy 1
##ress 1
arrangements 1
travelled 1
furniture 1
fist 1
relieved 1
##tics 1
Leonard 1
linear 1
earn 1
expand 1
Soul 1
Plan 1
Leeds 1
Sierra 1
accessible 1
innocent 1
Winner 1
Fighter 1
Range 1
winds 1
vertical 1
Pictures 1
101 1
charter 1
cooperation 1
prisoner 1
interviews 1
recognised 1
sung 1
manufacturer 1
exposure 1
submitted 1
Mars 1
leaf 1
gauge 1
screaming 1
likes 1
eligible 1
##ac 1
gathering 1
columns 1
##dra 1
belly 1
UN 1
maps 1
messages 1
speakers 1
##ants 1
garage 1
unincorporated 1
Number 1
Watson 1
sixteen 1
lots 1
beaten 1
Could 1
Municipality 1
##ano 1
Horse 1
talks 1
Drake 1
scores 1
Venice 1
genetic 1
##mal 1
##ère 1
Cold 1
Jose 1
nurse 1
traditionally 1
##bus 1
Territory 1
Key 1
Nancy 1
##win 1
thumb 1
São 1
index 1
dependent 1
carries 1
controls 1
Comics 1
coalition 1
physician 1
referring 1
Ruth 1
Based 1
restricted 1
inherited 1
internationally 1
stretch 1
THE 1
plates 1
margin 1
Holland 1
knock 1
significance 1
valuable 1
Kenya 1
carved 1
emotion 1
conservation 1
municipalities 1
overseas 1
resumed 1
Finance 1
graduation 1
blinked 1
temperatures 1
constantly 1
productions 1
scientist 1
ghost 1
cuts 1
permitted 1
##ches 1
firmly 1
##bert 1
patrol 1
##yo 1
Croatian 1
attacking 1
1850 1
portrait 1
promoting 1
sink 1
conversion 1
##kov 1
locomotives 1
Guide 1
##val 1
nephew 1
relevant 1
Marc 1
drum 1
originated 1
Chair 1
visits 1
dragged 1
Price 1
favour 1
corridor 1
properly 1
respective 1
Caroline 1
reporting 1
inaugural 1
1848 1
industries 1
##ching 1
edges 1
Christianity 1
Maurice 1
Trent 1
Economics 1
carrier 1
Reed 1
##gon 1
tribute 1
Pradesh 1
##ale 1
extend 1
attitude 1
Yale 1
##lu 1
settlements 1
glasses 1
taxes 1
targets 1
##ids 1
quarters 1
##ological 1
connect 1
hence 1
metre 1
collapse 1
underneath 1
banned 1
Future 1
clients 1
alternate 1
explosion 1
kinds 1
Commons 1
hungry 1
dragon 1
Chapel 1
Buddhist 1
lover 1
depression 1
pulls 1
##ges 1
##uk 1
origins 1
computers 1
crosses 1
kissing 1
assume 1
emphasis 1
lighting 1
##ites 1
personally 1
crashed 1
beam 1
touchdown 1
lane 1
comparison 1
##mont 1
Hitler 1
##las 1
execution 1
##ene 1
acre 1
sum 1
Pearl 1
ray 1
##point 1
essentially 1
worker 1
convicted 1
tear 1
Clay 1
recovery 1
Literature 1
Unfortunately 1
##row 1
partial 1
Petersburg 1
Bulgaria 1
coaching 1
evolved 1
reception 1
enters 1
narrowed 1
elevator 1
therapy 1
defended 1
pairs 1
##lam 1
breaks 1
Bennett 1
Uncle 1
cylinder 1
##ison 1
passion 1
bases 1
Actor 1
cancelled 1
battles 1
extensively 1
oxygen 1
Ancient 1
specialized 1
negotiations 1
##rat 1
acquisition 1
convince 1
interpretation 1
##00 1
photos 1
aspect 1
colleges 1
Artist 1
keeps 1
##wing 1
Croatia 1
##ona 1
Hughes 1
Otto 1
comments 1
##du 1
Ph 1
Sweet 1
adventure 1
describing 1
Student 1
Shakespeare 1
scattered 1
objective 1
Aviation 1
Phillips 1
Fourth 1
athletes 1
##hal 1
##tered 1
Guitar 1
intensity 1
née 1
dining 1
curve 1
Obama 1
topics 1
legislative 1
Mill 1
Cruz 1
##ars 1
Members 1
recipient 1
Derby 1
inspiration 1
corresponding 1
fed 1
YouTube 1
coins 1
pressing 1
intent 1
Karen 1
cinema 1
Delta 1
destination 1
shorter 1
Christians 1
imagined 1
canal 1
Newcastle 1
Shah 1
Adrian 1
super 1
Males 1
160 1
liberal 1
lord 1
bat 1
supplied 1
Claude 1
meal 1
worship 1
##atic 1
Han 1
wire 1
°F 1
##tha 1
punishment 1
thirteen 1
fighters 1
##ibility 1
1859 1
Ball 1
gardens 1
##ari 1
Ottawa 1
pole 1
indicating 1
Twenty 1
Higher 1
Bass 1
Ivy 1
farming 1
##urs 1
certified 1
Saudi 1
plenty 1
##ces 1
restaurants 1
Representative 1
Miles 1
payment 1
##inger 1
##rit 1
Confederate 1
festivals 1
references 1
##ić 1
Mario 1
PhD 1
playoffs 1
witness 1
rice 1
mask 1
saving 1
opponents 1
enforcement 1
automatically 1
relegated 1
##oe 1
radar 1
whenever 1
Financial 1
imperial 1
uncredited 1
influences 1
Abraham 1
skull 1
Guardian 1
Haven 1
Bengal 1
impressive 1
input 1
mixture 1
Warsaw 1
altitude 1
distinction 1
1857 1
collective 1
Annie 1
##ean 1
##bal 1
directions 1
Flying 1
##nic 1
faded 1
##ella 1
contributing 1
##ó 1
employee 1
##lum 1
##yl 1
ruler 1
oriented 1
conductor 1
focusing 1
##die 1
Giants 1
Mills 1
mines 1
Deep 1
curled 1
Jessica 1
guitars 1
Louise 1
procedure 1
Machine 1
failing 1
attendance 1
Nepal 1
Brad 1
Liam 1
tourist 1
exhibited 1
Sophie 1
depicted 1
Shaw 1
Chuck 1
##can 1
expecting 1
challenges 1
##nda 1
equally 1
resignation 1
##logical 1
Tigers 1
loop 1
pitched 1
outdoor 1
reviewed 1
hopes 1
True 1
temporarily 1
Borough 1
torn 1
jerked 1
collect 1
Berkeley 1
Independence 1
cotton 1
retreat 1
campaigns 1
participating 1
Intelligence 1
Heaven 1
##ked 1
situations 1
borough 1
Democrats 1
Harbor 1
##len 1
Liga 1
serial 1
circles 1
fourteen 1
##lot 1
seized 1
filling 1
departments 1
finance 1
absolute 1
Roland 1
Nate 1
floors 1
raced 1
struggling 1
deliver 1
protests 1
##tel 1
Exchange 1
efficient 1
experiments 1
##dar 1
faint 1
3D 1
binding 1
Lions 1
lightly 1
skill 1
proteins 1
difficulties 1
##cal 1
monthly 1
camps 1
flood 1
loves 1
Amanda 1
Commerce 1
##oid 1
##lies 1
elementary 1
##tre 1
organic 1
##stein 1
##ph 1
receives 1
Tech 1
enormous 1
distinctive 1
Joint 1
experiment 1
Circuit 1
citizen 1
##hy 1
shelter 1
ideal 1
practically 1
formula 1
addressed 1
Foster 1
Productions 1
##ax 1
variable 1
punk 1
Voice 1
fastest 1
concentrated 1
##oma 1
##yer 1
stored 1
surrender 1
vary 1
Sergeant 1
Wells 1
ward 1
Wait 1
##ven 1
playoff 1
reducing 1
cavalry 1
##dle 1
Venezuela 1
tissue 1
amounts 1
sweat 1
##we 1
Non 1
##nik 1
beetle 1
##bu 1
##tu 1
Jared 1
Hunt 1
##₂ 1
fat 1
Sultan 1
Living 1
Circle 1
Secondary 1
Suddenly 1
reverse 1
##min 1
Travel 1
##bin 1
Lebanon 1
##mas 1
virus 1
Wind 1
dissolved 1
enrolled 1
holiday 1
Keep 1
helicopter 1
Clarke 1
constitutional 1
technologies 1
doubles 1
instructions 1
##ace 1
Azerbaijan 1
##ill 1
occasional 1
frozen 1
trick 1
wiped 1
writings 1
Shanghai 1
preparing 1
challenged 1
mainstream 1
summit 1
180 1
##arian 1
##rating 1
designation 1
##ada 1
revenge 1
filming 1
tightened 1
Miguel 1
Montana 1
reflect 1
celebration 1
bitch 1
flashed 1
signals 1
rounded 1
peoples 1
##tation 1
renowned 1
Google 1
characteristic 1
Campaign 1
sliding 1
##rman 1
usage 1
Record 1
Using 1
woke 1
solutions 1
holes 1
theories 1
logo 1
Protestant 1
relaxed 1
brow 1
nickname 1
Reading 1
marble 1
##tro 1
symptoms 1
Overall 1
capita 1
##ila 1
outbreak 1
revolution 1
deemed 1
Principal 1
Hannah 1
approaches 1
inducted 1
Wellington 1
vulnerable 1
Environmental 1
Drama 1
incumbent 1
Dame 1
1854 1
travels 1
samples 1
accurate 1
physically 1
Sony 1
Nashville 1
##sville 1
##lic 1
##og 1
Producer 1
Lucky 1
tough 1
Stanford 1
resort 1
repeatedly 1
eyebrows 1
Far 1
choir 1
commenced 1
##ep 1
##ridge 1
rage 1
swing 1
sequel 1
heir 1
buses 1
ad 1
Grove 1
##late 1
##rick 1
updated 1
##SA 1
Delaware 1
##fa 1
Athletics 1
warmth 1
Off 1
excitement 1
verse 1
Protection 1
Villa 1
corruption 1
intellectual 1
Jenny 1
##lyn 1
mystery 1
prayer 1
healthy 1
##ologist 1
Bear 1
lab 1
Ernest 1
Remix 1
register 1
basement 1
Montgomery 1
consistent 1
tier 1
1855 1
Preston 1
Brooks 1
##maker 1
vocalist 1
laboratory 1
delayed 1
wheels 1
rope 1
bachelor 1
pitcher 1
Block 1
Nevertheless 1
suspect 1
efficiency 1
Nebraska 1
siege 1
FBI 1
planted 1
##AC 1
Newton 1
breeding 1
##ain 1
eighteen 1
Argentine 1
encounter 1
servant 1
1858 1
elder 1
Shadow 1
Episode 1
fabric 1
doctors 1
survival 1
removal 1
chemistry 1
volunteers 1
Kane 1
variant 1
arrives 1
Eagle 1
Left 1
##fe 1
Jo 1
divorce 1
##ret 1
yesterday 1
Bryan 1
handling 1
diseases 1
customer 1
Sheriff 1
Tiger 1
Harper 1
##oi 1
resting 1
Linda 1
Sheffield 1
gasped 1
sexy 1
economics 1
alien 1
tale 1
footage 1
Liberty 1
yeah 1
fundamental 1
Ground 1
flames 1
Actress 1
photographer 1
Maggie 1
Additional 1
joke 1
custom 1
Survey 1
Abu 1
silk 1
consumption 1
Ellis 1
bread 1
##uous 1
engagement 1
puts 1
Dog 1
##hr 1
poured 1
guilt 1
CDP 1
boxes 1
hardware 1
clenched 1
##cio 1
stem 1
arena 1
extending 1
##com 1
examination 1
Steel 1
encountered 1
revised 1
140 1
picking 1
Car 1
hasn 1
Minor 1
pride 1
Roosevelt 1
boards 1
##mia 1
blocked 1
curious 1
drag 1
narrative 1
brigade 1
Prefecture 1
mysterious 1
namely 1
connects 1
Devil 1
historians 1
CHAPTER 1
quit 1
installation 1
Golf 1
empire 1
elevated 1
##eo 1
releasing 1
Bond 1
##uri 1
harsh 1
ban 1
##BA 1
contracts 1
cloth 1
presents 1
stake 1
chorus 1
##eau 1
swear 1
##mp 1
allies 1
generations 1
Motor 1
meter 1
pen 1
warrior 1
veteran 1
##EC 1
comprehensive 1
missile 1
interaction 1
instruction 1
Renaissance 1
rested 1
Dale 1
fix 1
fluid 1
les 1
investigate 1
loaded 1
widow 1
exhibit 1
artificial 1
select 1
rushing 1
tasks 1
signature 1
nowhere 1
Engineer 1
feared 1
Prague 1
bother 1
extinct 1
gates 1
Bird 1
climbing 1
heels 1
striking 1
artwork 1
hunt 1
awake 1
##hin 1
Formula 1
thereby 1
commitment 1
imprisoned 1
Beyond 1
##MA 1
transformed 1
Agriculture 1
Low 1
Movie 1
radical 1
complicated 1
Yellow 1
Auckland 1
mansion 1
tenth 1
Trevor 1
predecessor 1
##eer 1
disbanded 1
sucked 1
circular 1
witch 1
gaining 1
lean 1
Behind 1
illustrated 1
rang 1
celebrate 1
bike 1
consist 1
framework 1
##cent 1
Shane 1
owns 1
350 1
comprises 1
collaborated 1
colleagues 1
##cast 1
engage 1
fewer 1
##ave 1
1856 1
observation 1
diplomatic 1
legislature 1
improvements 1
Interstate 1
craft 1
MTV 1
martial 1
administered 1
jet 1
approaching 1
permanently 1
attraction 1
manuscript 1
numbered 1
Happy 1
Andrea 1
shallow 1
Gothic 1
Anti 1
##bad 1
improvement 1
trace 1
preserve 1
regardless 1
rode 1
dies 1
achievement 1
maintaining 1
Hamburg 1
spine 1
##air 1
flowing 1
encourage 1
widened 1
posts 1
##bound 1
125 1
Southeast 1
Santiago 1
##bles 1
impression 1
receiver 1
Single 1
closure 1
##unt 1
communist 1
honors 1
Northwest 1
105 1
##ulated 1
cared 1
un 1
hug 1
magnetic 1
seeds 1
topic 1
perceived 1
prey 1
prevented 1
Marvel 1
Eight 1
Michel 1
Transportation 1
rings 1
Gate 1
##gne 1
Byzantine 1
accommodate 1
floating 1
##dor 1
equation 1
ministry 1
##ito 1
##gled 1
Rules 1
earthquake 1
revealing 1
Brother 1
Celtic 1
blew 1
chairs 1
Panama 1
Leon 1
attractive 1
descendants 1
Care 1
Ambassador 1
tours 1
breathed 1
threatening 1
##cho 1
smiles 1
Lt 1
Beginning 1
##iness 1
fake 1
assists 1
fame 1
strings 1
Mobile 1
Liu 1
parks 1
http 1
1852 1
brush 1
Aunt 1
bullet 1
consciousness 1
##sta 1
##ther 1
consequences 1
gather 1
dug 1
1851 1
bridges 1
Doug 1
##sion 1
Artists 1
ignore 1
Carol 1
brilliant 1
radiation 1
temples 1
basin 1
clouds 1
##cted 1
Stevens 1
spite 1
soap 1
consumer 1
Damn 1
Snow 1
recruited 1
##craft 1
Advanced 1
tournaments 1
Quinn 1
undergraduate 1
questioned 1
Palmer 1
Annual 1
Others 1
feeding 1
Spider 1
printing 1
##orn 1
cameras 1
functional 1
Chester 1
readers 1
Alpha 1
universal 1
Faith 1
Brandon 1
François 1
authored 1
Ring 1
el 1
aims 1
athletic 1
possessed 1
Vermont 1
programmes 1
##uck 1
bore 1
Fisher 1
statements 1
shed 1
saxophone 1
neighboring 1
pronounced 1
barrel 1
bags 1
##dge 1
organisations 1
pilots 1
casualties 1
Kenneth 1
##brook 1
silently 1
Malcolm 1
span 1
Essex 1
anchor 1
##hl 1
virtual 1
lessons 1
Henri 1
Trump 1
Page 1
pile 1
locomotive 1
wounds 1
uncomfortable 1
sustained 1
Diana 1
Eagles 1
##pi 1
2000s 1
documented 1
##bel 1
Cassie 1
delay 1
kisses 1
##ines 1
variation 1
##ag 1
growled 1
##mark 1
##ways 1
Leslie 1
studios 1
Friedrich 1
aunt 1
actively 1
armor 1
eaten 1
historically 1
Better 1
purse 1
honey 1
ratings 1
##ée 1
naturally 1
1840 1
peer 1
Kenny 1
Cardinal 1
database 1
Looking 1
runners 1
handsome 1
Double 1
PA 1
##boat 1
##sted 1
protecting 1
##jan 1
Diamond 1
concepts 1
interface 1
##aki 1
Watch 1
Article 1
Columbus 1
dialogue 1
pause 1
##rio 1
extends 1
blanket 1
pulse 1
1853 1
affiliate 1
ladies 1
Ronald 1
counted 1
kills 1
demons 1
##zation 1
Airlines 1
Marco 1
Cat 1
companion 1
mere 1
Yugoslavia 1
Forum 1
Allan 1
pioneer 1
Competition 1
Methodist 1
patent 1
nobody 1
Stockholm 1
##ien 1
regulation 1
##ois 1
accomplished 1
##itive 1
washed 1
sake 1
Vladimir 1
crops 1
prestigious 1
humor 1
Sally 1
labour 1
tributary 1
trap 1
altered 1
examined 1
Mumbai 1
bombing 1
Ash 1
noble 1
suspension 1
ruins 1
##bank 1
spare 1
displays 1
guided 1
dimensional 1
Iraqi 1
##hon 1
sciences 1
Franz 1
relating 1
fence 1
followers 1
Palestine 1
invented 1
proceeded 1
Batman 1
Bradley 1
##yard 1
##ova 1
crystal 1
Kerala 1
##ima 1
shipping 1
handled 1
Want 1
abolished 1
Drew 1
##tter 1
Powell 1
Half 1
##table 1
##cker 1
exhibitions 1
Were 1
assignment 1
assured 1
##rine 1
Indonesian 1
Grammy 1
acknowledged 1
Kylie 1
coaches 1
structural 1
clearing 1
stationed 1
Say 1
Total 1
Rail 1
besides 1
glow 1
threats 1
afford 1
Tree 1
Musical 1
##pp 1
elite 1
centered 1
explore 1
Engineers 1
Stakes 1
Hello 1
tourism 1
severely 1
assessment 1
##tly 1
crack 1
politicians 1
##rrow 1
sheets 1
volunteer 1
##borough 1
##hold 1
announcement 1
recover 1
contribute 1
lungs 1
##ille 1
mainland 1
presentation 1
Johann 1
Writing 1
1849 1
##bird 1
Study 1
Boulevard 1
coached 1
fail 1
airline 1
Congo 1
Plus 1
Syrian 1
introduce 1
ridge 1
Casey 1
manages 1
##fi 1
searched 1
Support 1
succession 1
progressive 1
coup 1
cultures 1
##lessly 1
sensation 1
Cork 1
Elena 1
Sofia 1
Philosophy 1
mini 1
trunk 1
academy 1
Mass 1
Liz 1
practiced 1
Reid 1
##ule 1
satisfied 1
experts 1
Wilhelm 1
Woods 1
invitation 1
Angels 1
calendar 1
joy 1
Sr 1
Dam 1
packed 1
##uan 1
bastard 1
Workers 1
broadcasts 1
logic 1
cooking 1
backward 1
##ack 1
Chen 1
creates 1
enzyme 1
##xi 1
Davies 1
aviation 1
VII 1
Conservation 1
fucking 1
Knights 1
##kan 1
requiring 1
hectares 1
wars 1
ate 1
##box 1
Mind 1
desired 1
oak 1
absorbed 1
Really 1
Vietnamese 1
Paulo 1
athlete 1
##car 1
##eth 1
Talk 1
Wu 1
##cks 1
survivors 1
Yang 1
Joel 1
Almost 1
Holmes 1
Armed 1
Joshua 1
priests 1
discontinued 1
##sey 1
blond 1
Rolling 1
suggesting 1
CA 1
clay 1
exterior 1
Scientific 1
##sive 1
Giovanni 1
Hi 1
farther 1
contents 1
Winners 1
animation 1
neutral 1
mall 1
Notes 1
layers 1
professionals 1
Armstrong 1
Against 1
Piano 1
involve 1
monitor 1
angel 1
parked 1
bears 1
seated 1
feat 1
beliefs 1
##kers 1
Version 1
suffer 1
##ceae 1
guidance 1
##eur 1
honored 1
raid 1
alarm 1
Glen 1
Ellen 1
Jamaica 1
trio 1
enabled 1
##ils 1
procedures 1
##hus 1
moderate 1
upstairs 1
##ses 1
torture 1
Georgian 1
rebellion 1
Fernando 1
Nice 1
##are 1
Aires 1
Campus 1
beast 1
##hing 1
1847 1
##FA 1
Isle 1
##logist 1
Princeton 1
cathedral 1
Oakland 1
Solomon 1
##tto 1
Milwaukee 1
upcoming 1
midfielder 1
Neither 1
sacred 1
Eyes 1
appreciate 1
Brunswick 1
secrets 1
Rice 1
Somerset 1
Chancellor 1
Curtis 1
##gel 1
Rich 1
separation 1
grid 1
##los 1
##bon 1
urge 1
##ees 1
##ree 1
freight 1
towers 1
psychology 1
requirement 1
dollar 1
##fall 1
##sman 1
exile 1
tomb 1
Salt 1
Stefan 1
Buenos 1
Revival 1
Porter 1
tender 1
diesel 1
chocolate 1
Eugene 1
Legion 1
Laboratory 1
sheep 1
arched 1
hospitals 1
orbit 1
Full 1
##hall 1
drinks 1
ripped 1
##RS 1
tense 1
Hank 1
leagues 1
##nberg 1
PlayStation 1
fool 1
Punjab 1
relatives 1
Comedy 1
sur 1
1846 1
Tonight 1
Sox 1
##if 1
Rabbi 1
org 1
speaks 1
institute 1
defender 1
painful 1
wishes 1
Weekly 1
literacy 1
portions 1
snake 1
item 1
deals 1
##tum 1
autumn 1
sharply 1
reforms 1
thighs 1
prototype 1
##ition 1
argues 1
disorder 1
Physics 1
terror 1
provisions 1
refugees 1
predominantly 1
independently 1
march 1
##graphy 1
Arabia 1
Andrews 1
Bus 1
Money 1
drops 1
##zar 1
pistol 1
matrix 1
revolutionary 1
##ust 1
Starting 1
##ptic 1
Oak 1
Monica 1
##ides 1
servants 1
##hed 1
archaeological 1
divorced 1
rocket 1
enjoying 1
fires 1
##nel 1
assembled 1
qualification 1
retiring 1
##fied 1
Distinguished 1
handful 1
infection 1
Durham 1
##itz 1
fortune 1
renewed 1
Chelsea 1
##sley 1
curved 1
gesture 1
retain 1
exhausted 1
##ifying 1
Perth 1
jumping 1
Palestinian 1
Simpson 1
colonies 1
steal 1
##chy 1
corners 1
Finn 1
arguing 1
Martha 1
##var 1
Betty 1
emerging 1
Heights 1
Hindi 1
Manila 1
pianist 1
founders 1
regret 1
Napoleon 1
elbow 1
overhead 1
bold 1
praise 1
humanity 1
##ori 1
Revolutionary 1
##ere 1
fur 1
##ole 1
Ashley 1
Official 1
##rm 1
lovely 1
Architecture 1
##sch 1
Baronet 1
virtually 1
##OS 1
descended 1
immigration 1
##das 1
##kes 1
Holly 1
Wednesday 1
maintains 1
theatrical 1
Evan 1
Gardens 1
citing 1
##gia 1
segments 1
Bailey 1
Ghost 1
##city 1
governing 1
graphics 1
##ined 1
privately 1
potentially 1
transformation 1
Crystal 1
Cabinet 1
sacrifice 1
hesitated 1
mud 1
Apollo 1
Desert 1
bin 1
victories 1
Editor 1
Railways 1
Web 1
Case 1
tourists 1
Brussels 1
Franco 1
compiled 1
topped 1
Gene 1
engineers 1
commentary 1
egg 1
escort 1
nerve 1
arch 1
necessarily 1
frustration 1
Michelle 1
democracy 1
genes 1
Facebook 1
halfway 1
##ient 1
102 1
flipped 1
Won 1
##mit 1
NASA 1
Lynn 1
Provincial 1
ambassador 1
Inspector 1
glared 1
Change 1
McDonald 1
developments 1
tucked 1
noting 1
Gibson 1
circulation 1
dubbed 1
armies 1
resource 1
Headquarters 1
##iest 1
Mia 1
Albanian 1
Oil 1
Albums 1
excuse 1
intervention 1
Grande 1
Hugo 1
integration 1
civilians 1
depends 1
reserves 1
Dee 1
compositions 1
identification 1
restrictions 1
quarterback 1
Miranda 1
Universe 1
favourite 1
ranges 1
hint 1
loyal 1
Op 1
entity 1
Manual 1
quoted 1
dealt 1
specialist 1
Zhang 1
download 1
Westminster 1
Rebecca 1
streams 1
Anglican 1
variations 1
Mine 1
detective 1
Films 1
reserved 1
##oke 1
##key 1
sailing 1
##gger 1
expanding 1
recall 1
discovers 1
particles 1
behaviour 1
Gavin 1
blank 1
permit 1
Java 1
Fraser 1
Pass 1
##non 1
##TA 1
panels 1
statistics 1
notion 1
courage 1
dare 1
venues 1
##roy 1
Box 1
Newport 1
travelling 1
Thursday 1
warriors 1
Glenn 1
criteria 1
360 1
mutual 1
restore 1
varied 1
bitter 1
Katherine 1
##lant 1
ritual 1
bits 1
##à 1
Henderson 1
trips 1
Richardson 1
Detective 1
curse 1
psychological 1
Il 1
midnight 1
streak 1
facts 1
Dawn 1
Indies 1
Edmund 1
roster 1
Gen 1
##nation 1
1830 1
congregation 1
shaft 1
##ically 1
##mination 1
Indianapolis 1
Sussex 1
loving 1
##bit 1
sounding 1
horrible 1
Continental 1
Griffin 1
advised 1
magical 1
millions 1
##date 1
1845 1
Safety 1
lifting 1
determination 1
valid 1
dialect 1
Penn 1
Know 1
triple 1
avoided 1
dancer 1
judgment 1
sixty 1
farmer 1
lakes 1
blast 1
aggressive 1
Abby 1
tag 1
chains 1
inscription 1
##nn 1
conducting 1
Scout 1
buying 1
##wich 1
spreading 1
##OC 1
array 1
hurried 1
Environment 1
improving 1
prompted 1
fierce 1
Taking 1
Away 1
tune 1
pissed 1
Bull 1
catching 1
##ying 1
eyebrow 1
metropolitan 1
terrain 1
##rel 1
Lodge 1
manufacturers 1
creator 1
##etic 1
happiness 1
ports 1
##ners 1
Relations 1
fortress 1
targeted 1
##ST 1
allegedly 1
blues 1
##osa 1
Bosnia 1
##dom 1
burial 1
similarly 1
stranger 1
pursued 1
symbols 1
rebels 1
reflection 1
routine 1
traced 1
indoor 1
eventual 1
##ska 1
##ão 1
##una 1
MD 1
##phone 1
oh 1
grants 1
Reynolds 1
rid 1
operators 1
##nus 1
Joey 1
vital 1
siblings 1
keyboard 1
br 1
removing 1
societies 1
drives 1
solely 1
princess 1
lighter 1
Various 1
Cavalry 1
believing 1
SC 1
underwent 1
relay 1
smelled 1
syndrome 1
welfare 1
authorized 1
seemingly 1
Hard 1
chicken 1
##rina 1
Ages 1
Bo 1
democratic 1
barn 1
Eye 1
shorts 1
##coming 1
##hand 1
disappointed 1
unexpected 1
centres 1
Exhibition 1
Stories 1
Site 1
banking 1
accidentally 1
Agent 1
conjunction 1
André 1
Chloe 1
resist 1
width 1
Queens 1
provision 1
##art 1
Melissa 1
Honorary 1
Del 1
prefer 1
abruptly 1
duration 1
##vis 1
Glass 1
enlisted 1
##ado 1
discipline 1
Sisters 1
carriage 1
##ctor 1
##sburg 1
Lancashire 1
log 1
fuck 1
##iz 1
closet 1
collecting 1
holy 1
rape 1
trusted 1
cleaning 1
inhabited 1
Rocky 1
104 1
editorial 1
##yu 1
##ju 1
succeed 1
strict 1
Cuban 1
##iya 1
Bronze 1
outcome 1
##ifies 1
##set 1
corps 1
Hero 1
barrier 1
Kumar 1
groaned 1
Nina 1
Burton 1
enable 1
stability 1
Milton 1
knots 1
##ination 1
slavery 1
##borg 1
curriculum 1
trailer 1
warfare 1
Dante 1
Edgar 1
revival 1
Copenhagen 1
define 1
advocate 1
Garrett 1
Luther 1
overcome 1
pipe 1
750 1
construct 1
Scotia 1
kings 1
flooding 1
##hard 1
Ferdinand 1
Felix 1
forgot 1
Fish 1
Kurt 1
elaborate 1
##BC 1
graphic 1
gripped 1
colonel 1
Sophia 1
Advisory 1
Self 1
##uff 1
##lio 1
monitoring 1
seal 1
senses 1
rises 1
peaceful 1
journals 1
1837 1
checking 1
legendary 1
Ghana 1
##power 1
ammunition 1
Rosa 1
Richards 1
nineteenth 1
ferry 1
aggregate 1
Troy 1
inter 1
##wall 1
Triple 1
steep 1
tent 1
Cyprus 1
1844 1
##woman 1
commanding 1
farms 1
doi 1
navy 1
specified 1
na 1
cricketer 1
transported 1
Think 1
comprising 1
grateful 1
solve 1
##core 1
beings 1
clerk 1
grain 1
vector 1
discrimination 1
##TC 1
Katie 1
reasonable 1
drawings 1
veins 1
consideration 1
Monroe 1
repeat 1
breed 1
dried 1
witnessed 1
ordained 1
Current 1
spirits 1
remarkable 1
consultant 1
urged 1
Remember 1
anime 1
singers 1
phenomenon 1
Rhode 1
Carlo 1
demanding 1
findings 1
manual 1
varying 1
Fellowship 1
generate 1
safely 1
heated 1
withdrawn 1
##ao 1
headquartered 1
##zon 1
##lav 1
##ency 1
Col 1
Memphis 1
imposed 1
rivals 1
Planet 1
healing 1
##hs 1
ensemble 1
Warriors 1
##bone 1
cult 1
Frankfurt 1
##HL 1
diversity 1
Gerald 1
intermediate 1
##izes 1
reactions 1
Sister 1
##ously 1
##lica 1
quantum 1
awkward 1
mentions 1
pursuit 1
##ography 1
varies 1
profession 1
molecular 1
consequence 1
lectures 1
cracked 1
103 1
slowed 1
##tsu 1
cheese 1
upgraded 1
suite 1
substance 1
Kingston 1
1800 1
Idaho 1
Theory 1
##een 1
ain 1
Carson 1
Molly 1
##OR 1
configuration 1
Whitney 1
reads 1
audiences 1
##tie 1
Geneva 1
Outside 1
##nen 1
##had 1
transit 1
volleyball 1
Randy 1
Chad 1
rubber 1
motorcycle 1
respected 1
eager 1
Level 1
coin 1
##lets 1
neighbouring 1
##wski 1
confident 1
##cious 1
poll 1
uncertain 1
punch 1
thesis 1
Tucker 1
IATA 1
Alec 1
##ographic 1
##law 1
1841 1
desperately 1
1812 1
Lithuania 1
accent 1
Cox 1
lightning 1
skirt 1
##load 1
Burns 1
Dynasty 1
##ug 1
chapters 1
Working 1
dense 1
Morocco 1
##kins 1
casting 1
Set 1
activated 1
oral 1
Brien 1
horn 1
HIV 1
dawn 1
stumbled 1
altar 1
tore 1
considerably 1
Nicole 1
interchange 1
registration 1
biography 1
Hull 1
Stan 1
bulk 1
consent 1
Pierce 1
##ER 1
Fifth 1
marched 1
terrorist 1
##piece 1
##itt 1
Presidential 1
Heather 1
staged 1
Plant 1
relegation 1
sporting 1
joins 1
##ced 1
Pakistani 1
dynamic 1
Heat 1
##lf 1
ourselves 1
Except 1
Elliott 1
nationally 1
goddess 1
investors 1
Burke 1
Jackie 1
##ā 1
##RA 1
Tristan 1
Associate 1
Tuesday 1
scope 1
Near 1
bunch 1
##abad 1
##ben 1
sunlight 1
##aire 1
manga 1
Willie 1
trucks 1
boarding 1
Lion 1
lawsuit 1
Learning 1
Der 1
pounding 1
awful 1
##mine 1
IT 1
Legend 1
romance 1
Serie 1
AC 1
gut 1
precious 1
Robertson 1
hometown 1
realm 1
Guards 1
Tag 1
batting 1
##vre 1
halt 1
conscious 1
1838 1
acquire 1
collar 1
##gg 1
##ops 1
Herald 1
nationwide 1
citizenship 1
Aircraft 1
decrease 1
em 1
Fiction 1
Female 1
corporation 1
Located 1
##ip 1
fights 1
unconscious 1
Tampa 1
Poetry 1
lobby 1
Malta 1
##sar 1
##bie 1
layout 1
Tate 1
reader 1
stained 1
##bre 1
##rst 1
##ulate 1
loudly 1
Eva 1
Cohen 1
exploded 1
Merit 1
Maya 1
##rable 1
Rovers 1
##IC 1
Morrison 1
Should 1
vinyl 1
##mie 1
onwards 1
##gie 1
vicinity 1
Wildlife 1
probability 1
Mar 1
Barnes 1
##ook 1
spinning 1
Moses 1
##vie 1
Surrey 1
Planning 1
conferences 1
protective 1
Plaza 1
deny 1
Canterbury 1
manor 1
Estate 1
tilted 1
comics 1
IBM 1
destroying 1
server 1
Dorothy 1
##horn 1
Oslo 1
lesser 1
heaven 1
Marshal 1
scales 1
strikes 1
##ath 1
firms 1
attract 1
##BS 1
controlling 1
Bradford 1
southeastern 1
Amazon 1
Travis 1
Janet 1
governed 1
1842 1
Train 1
Holden 1
bleeding 1
gifts 1
rent 1
1839 1
palms 1
##ū 1
judicial 1
Ho 1
Finals 1
conflicts 1
unlikely 1
draws 1
##cies 1
compensation 1
adds 1
elderly 1
Anton 1
lasting 1
Nintendo 1
codes 1
ministers 1
pot 1
associations 1
capabilities 1
##cht 1
libraries 1
##sie 1
chances 1
performers 1
runway 1
##af 1
##nder 1
Mid 1
Vocals 1
##uch 1
##eon 1
interpreted 1
priority 1
Uganda 1
ruined 1
Mathematics 1
cook 1
AFL 1
Lutheran 1
AIDS 1
Capitol 1
chase 1
axis 1
Moreover 1
María 1
Saxon 1
storyline 1
##ffed 1
Tears 1
Kid 1
cent 1
colours 1
Sex 1
##long 1
pm 1
blonde 1
Edwin 1
CE 1
diocese 1
##ents 1
##boy 1
Inn 1
##ller 1
Saskatchewan 1
##kh 1
stepping 1
Windsor 1
##oka 1
##eri 1
Xavier 1
Resources 1
1843 1
##top 1
##rad 1
##lls 1
Testament 1
poorly 1
1836 1
drifted 1
slope 1
CIA 1
remix 1
Lords 1
mature 1
hosting 1
diamond 1
beds 1
##ncies 1
luxury 1
trigger 1
##lier 1
preliminary 1
hybrid 1
journalists 1
Enterprise 1
proven 1
expelled 1
insects 1
Beautiful 1
lifestyle 1
vanished 1
##ake 1
##ander 1
matching 1
surfaces 1
Dominican 1
Kids 1
referendum 1
Orlando 1
Truth 1
Sandy 1
privacy 1
Calgary 1
Speaker 1
sts 1
Nobody 1
shifting 1
##gers 1
Roll 1
Armenia 1
Hand 1
##ES 1
106 1
##ont 1
Guild 1
larvae 1
Stock 1
flame 1
gravity 1
enhanced 1
Marion 1
surely 1
##tering 1
Tales 1
algorithm 1
Emmy 1
darker 1
VIII 1
##lash 1
hamlet 1
deliberately 1
occurring 1
choices 1
Gage 1
fees 1
settling 1
ridiculous 1
##ela 1
Sons 1
cop 1
custody 1
##ID 1
proclaimed 1
Cardinals 1
##pm 1
Metal 1
Ana 1
1835 1
clue 1
Cardiff 1
riders 1
observations 1
MA 1
sometime 1
##och 1
performer 1
intact 1
Points 1
allegations 1
rotation 1
Tennis 1
tenor 1
Directors 1
##ats 1
Transit 1
thigh 1
Complex 1
##works 1
twentieth 1
Factory 1
doctrine 1
Daddy 1
##ished 1
pretend 1
Winston 1
cigarette 1
##IA 1
specimens 1
hydrogen 1
smoking 1
mathematical 1
arguments 1
openly 1
developer 1
##iro 1
fists 1
somebody 1
##san 1
Standing 1
Caleb 1
intelligent 1
Stay 1
Interior 1
echoed 1
Valentine 1
varieties 1
Brady 1
cluster 1
Ever 1
voyage 1
##of 1
deposits 1
ultimate 1
Hayes 1
horizontal 1
proximity 1
##ás 1
estates 1
exploration 1
NATO 1
Classical 1
##most 1
bills 1
condemned 1
1832 1
hunger 1
##ato 1
planes 1
deserve 1
offense 1
sequences 1
rendered 1
acceptance 1
##ony 1
manufacture 1
Plymouth 1
innovative 1
predicted 1
##RC 1
Fantasy 1
##une 1
supporter 1
absent 1
Picture 1
bassist 1
rescued 1
##MC 1
Ahmed 1
Monte 1
##sts 1
##rius 1
insane 1
novelist 1
##és 1
agrees 1
Antarctic 1
Lancaster 1
Hopkins 1
calculated 1
startled 1
##star 1
tribal 1
Amendment 1
##hoe 1
invisible 1
patron 1
deer 1
Walk 1
tracking 1
Lyon 1
tickets 1
##ED 1
philosopher 1
compounds 1
chuckled 1
##wi 1
pound 1
loyalty 1
Academic 1
petition 1
refuses 1
marking 1
Mercury 1
northeastern 1
dimensions 1
scandal 1
Canyon 1
patch 1
publish 1
##oning 1
Peak 1
minds 1
##boro 1
Presbyterian 1
Hardy 1
theoretical 1
magnitude 1
bombs 1
cage 1
##ders 1
##kai 1
measuring 1
explaining 1
avoiding 1
touchdowns 1
Card 1
theology 1
##ured 1
Popular 1
export 1
suspicious 1
Probably 1
photograph 1
Lou 1
Parks 1
Arms 1
compact 1
Apparently 1
excess 1
Banks 1
lied 1
stunned 1
territorial 1
Filipino 1
spectrum 1
learns 1
wash 1
imprisonment 1
ugly 1
##rose 1
Albany 1
Erik 1
sends 1
##hara 1
##rid 1
consumed 1
##gling 1
Belgrade 1
Da 1
opposing 1
Magnus 1
footsteps 1
glowing 1
delicate 1
Alexandria 1
Ludwig 1
gorgeous 1
Bros 1
Index 1
##PA 1
customs 1
preservation 1
bonds 1
##mond 1
environments 1
##nto 1
instructed 1
parted 1
adoption 1
locality 1
workshops 1
goalkeeper 1
##rik 1
##uma 1
Brighton 1
Slovenia 1
##ulating 1
##tical 1
towel 1
hugged 1
stripped 1
Bears 1
upright 1
Wagner 1
##aux 1
secretly 1
Adventures 1
nest 1
Course 1
Lauren 1
Boeing 1
Abdul 1
Lakes 1
450 1
##cu 1
USSR 1
caps 1
Chan 1
##nna 1
conceived 1
Actually 1
Belfast 1
Lithuanian 1
concentrate 1
possess 1
militia 1
pine 1
protagonist 1
Helena 1
##PS 1
##band 1
Belle 1
Clara 1
Reform 1
currency 1
pregnancy 1
1500 1
##rim 1
Isabella 1
hull 1
Name 1
trend 1
journalism 1
diet 1
##mel 1
Recording 1
acclaimed 1
Tang 1
Jace 1
steering 1
vacant 1
suggestion 1
costume 1
laser 1
##š 1
##ink 1
##pan 1
##vić 1
integral 1
achievements 1
wise 1
classroom 1
unions 1
southwestern 1
##uer 1
Garcia 1
toss 1
Tara 1
Large 1
##tate 1
evident 1
responsibilities 1
populated 1
satisfaction 1
##bia 1
casual 1
Ecuador 1
##ght 1
arose 1
##ović 1
Cornwall 1
embrace 1
refuse 1
Heavyweight 1
XI 1
Eden 1
activists 1
##uation 1
biology 1
##shan 1
fraud 1
Fuck 1
matched 1
legacy 1
Rivers 1
missionary 1
extraordinary 1
Didn 1
holder 1
wickets 1
crucial 1
Writers 1
Hurricane 1
Iceland 1
gross 1
trumpet 1
accordance 1
hurry 1
flooded 1
doctorate 1
Albania 1
##yi 1
united 1
deceased 1
jealous 1
grief 1
flute 1
portraits 1
##а 1
pleasant 1
Founded 1
Face 1
crowned 1
Raja 1
advisor 1
Salem 1
##ec 1
Achievement 1
admission 1
freely 1
minimal 1
Sudan 1
developers 1
estimate 1
disabled 1
##lane 1
downstairs 1
Bruno 1
##pus 1
pinyin 1
##ude 1
lecture 1
deadly 1
underlying 1
optical 1
witnesses 1
Combat 1
Julius 1
tapped 1
variants 1
##like 1
Colonial 1
Critics 1
Similarly 1
mouse 1
voltage 1
sculptor 1
Concert 1
salary 1
Frances 1
##ground 1
hook 1
premises 1
Software 1
instructor 1
nominee 1
##ited 1
fog 1
slopes 1
##zu 1
vegetation 1
sail 1
##rch 1
Body 1
Apart 1
atop 1
View 1
utility 1
ribs 1
cab 1
migration 1
##wyn 1
bounded 1
2019 1
pillow 1
trails 1
##ub 1
Halifax 1
shade 1
Rush 1
##lah 1
##dian 1
Notre 1
interviewed 1
Alexandra 1
Springfield 1
Indeed 1
rubbing 1
dozens 1
amusement 1
legally 1
##lers 1
Jill 1
Cinema 1
ignoring 1
Choice 1
##ures 1
pockets 1
##nell 1
laying 1
Blair 1
tackles 1
separately 1
##teen 1
Criminal 1
performs 1
theorem 1
Communication 1
suburbs 1
##iel 1
competitors 1
rows 1
##hai 1
Manitoba 1
Eleanor 1
interactions 1
nominations 1
assassination 1
##dis 1
Edmonton 1
diving 1
##dine 1
essay 1
##tas 1
AFC 1
Edge 1
directing 1
imagination 1
sunk 1
implement 1
Theodore 1
trembling 1
sealed 1
##rock 1
Nobel 1
##ancy 1
##dorf 1
##chen 1
genuine 1
apartments 1
Nicolas 1
AA 1
Bach 1
Globe 1
Store 1
220 1
##10 1
Rochester 1
##ño 1
alert 1
107 1
Beck 1
##nin 1
Naples 1
Basin 1
Crawford 1
fears 1
Tracy 1
##hen 1
disk 1
##pped 1
seventeen 1
Lead 1
backup 1
reconstruction 1
##lines 1
terrified 1
sleeve 1
nicknamed 1
popped 1
##making 1
##ern 1
Holiday 1
Gospel 1
ibn 1
##ime 1
convert 1
divine 1
resolved 1
##quet 1
ski 1
realizing 1
##RT 1
Legislature 1
reservoir 1
Rain 1
sinking 1
rainfall 1
elimination 1
challenging 1
tobacco 1
##outs 1
Given 1
smallest 1
Commercial 1
pin 1
rebel 1
comedian 1
exchanged 1
airing 1
dish 1
Salvador 1
promising 1
##wl 1
relax 1
presenter 1
toll 1
aerial 1
##eh 1
Fletcher 1
brass 1
disappear 1
zones 1
adjusted 1
contacts 1
##lk 1
sensed 1
Walt 1
mild 1
toes 1
flies 1
shame 1
considers 1
wildlife 1
Hanna 1
Arsenal 1
Ladies 1
naming 1
##ishing 1
anxiety 1
discussions 1
cute 1
undertaken 1
Cash 1
strain 1
Wyoming 1
dishes 1
precise 1
Angela 1
##ided 1
hostile 1
twins 1
115 1
Built 1
##pel 1
Online 1
tactics 1
Newman 1
##bourne 1
unclear 1
repairs 1
embarrassed 1
listing 1
tugged 1
Vale 1
##gin 1
Meredith 1
bout 1
##cle 1
velocity 1
tips 1
froze 1
evaluation 1
demonstrate 1
##card 1
criticised 1
Nash 1
lineup 1
Rao 1
monks 1
bacteria 1
lease 1
##lish 1
frightened 1
den 1
revived 1
finale 1
##rance 1
flee 1
Letters 1
decreased 1
##oh 1
Sounds 1
wrap 1
Sharon 1
incidents 1
renovated 1
everybody 1
stole 1
Bath 1
boxing 1
1815 1
withdraw 1
backs 1
interim 1
react 1
murders 1
Rhodes 1
Copa 1
framed 1
flown 1
Estonia 1
Heavy 1
explored 1
##rra 1
##GA 1
##ali 1
Istanbul 1
1834 1
##rite 1
##aging 1
##ues 1
Episcopal 1
arc 1
orientation 1
Maxwell 1
infected 1
##rot 1
BCE 1
Brook 1
grasp 1
Roberto 1
Excellence 1
108 1
withdrawal 1
Marines 1
rider 1
Lo 1
##sin 1
##run 1
Subsequently 1
garrison 1
hurricane 1
facade 1
Prussia 1
crushed 1
enterprise 1
##mber 1
Twitter 1
Generation 1
Physical 1
Sugar 1
editing 1
communicate 1
Ellie 1
##hurst 1
Ernst 1
wagon 1
promotional 1
conquest 1
Parliamentary 1
courtyard 1
lawyers 1
Superman 1
email 1
Prussian 1
lately 1
lecturer 1
Singer 1
Majesty 1
Paradise 1
sooner 1
Heath 1
slot 1
curves 1
convoy 1
##vian 1
induced 1
synonym 1
breeze 1
##plane 1
##ox 1
peered 1
Coalition 1
##hia 1
odds 1
##esh 1
##lina 1
Tomorrow 1
Nadu 1
##ico 1
##rah 1
damp 1
autonomous 1
console 1
Victory 1
counts 1
Luxembourg 1
intimate 1
Archived 1
Carroll 1
spy 1
Zero 1
habit 1
Always 1
faction 1
teenager 1
Johnston 1
chaos 1
ruin 1
commerce 1
blog 1
##shed 1
##the 1
reliable 1
Word 1
Yu 1
Norton 1
parade 1
Catholics 1
damned 1
##iling 1
surgeon 1
##tia 1
Allison 1
Jonas 1
remarked 1
##ès 1
idiot 1
Making 1
proposals 1
Industries 1
strategies 1
artifacts 1
batteries 1
reward 1
##vers 1
Agricultural 1
distinguish 1
lengths 1
Jeffrey 1
Progressive 1
kicking 1
Patricia 1
##gio 1
ballot 1
##ios 1
skilled 1
##gation 1
Colt 1
limestone 1
##AS 1
peninsula 1
##itis 1
LA 1
hotels 1
shapes 1
Crime 1
depicting 1
northwestern 1
HD 1
silly 1
Das 1
##² 1
##ws 1
##ash 1
##matic 1
thermal 1
Has 1
forgive 1
surrendered 1
Palm 1
Nacional 1
drank 1
haired 1
Mercedes 1
##foot 1
loading 1
Timothy 1
##roll 1
mechanisms 1
traces 1
digging 1
discussing 1
Natalie 1
##zhou 1
Forbes 1
landmark 1
Anyway 1
Manor 1
conspiracy 1
gym 1
knocking 1
viewing 1
Formation 1
Pink 1
Beauty 1
limbs 1
Phillip 1
sponsor 1
Joy 1
granite 1
Harbour 1
##ero 1
payments 1
Ballet 1
conviction 1
##dam 1
Hood 1
estimates 1
lacked 1
Mad 1
Jorge 1
##wen 1
refuge 1
##LA 1
invaded 1
Kat 1
suburban 1
##fold 1
investigated 1
Ari 1
complained 1
creek 1
Georges 1
##uts 1
powder 1
accepting 1
deserved 1
carpet 1
Thunder 1
molecules 1
Legal 1
cliff 1
strictly 1
enrollment 1
ranch 1
##rg 1
##mba 1
proportion 1
renovation 1
crop 1
grabbing 1
##liga 1
finest 1
entries 1
receptor 1
helmet 1
blown 1
Listen 1
flagship 1
workshop 1
resolve 1
nails 1
Shannon 1
portal 1
jointly 1
shining 1
Violet 1
overwhelming 1
upward 1
Mick 1
proceedings 1
##dies 1
##aring 1
Laurence 1
Churchill 1
##rice 1
commit 1
170 1
inclusion 1
Examples 1
##verse 1
##rma 1
fury 1
paths 1
##SC 1
ankle 1
nerves 1
Chemistry 1
rectangular 1
sworn 1
screenplay 1
cake 1
Mann 1
Seoul 1
Animal 1
sizes 1
Speed 1
vol 1
Population 1
Southwest 1
Hold 1
continuously 1
Qualified 1
wishing 1
Fighting 1
Made 1
disappointment 1
Portsmouth 1
Thirty 1
##beck 1
Ahmad 1
teammate 1
MLB 1
graph 1
Charleston 1
realizes 1
##dium 1
exhibits 1
preventing 1
##int 1
fever 1
rivalry 1
Male 1
mentally 1
dull 1
##lor 1
##rich 1
consistently 1
##igan 1
Madame 1
certificate 1
suited 1
Krishna 1
accuracy 1
Webb 1
Budapest 1
Rex 1
1831 1
Cornell 1
OK 1
surveillance 1
##gated 1
habitats 1
Adventure 1
Conrad 1
Superior 1
Gay 1
sofa 1
aka 1
boot 1
Statistics 1
Jessie 1
Liberation 1
##lip 1
##rier 1
brands 1
saint 1
Heinrich 1
Christine 1
bath 1
Rhine 1
ballet 1
Jin 1
consensus 1
chess 1
Arctic 1
stack 1
furious 1
cheap 1
toy 1
##yre 1
##face 1
##gging 1
gastropod 1
##nne 1
Romans 1
membrane 1
answering 1
25th 1
architects 1
sustainable 1
##yne 1
Hon 1
1814 1
Baldwin 1
dome 1
##awa 1
##zen 1
celebrity 1
enclosed 1
##uit 1
##mmer 1
Electronic 1
locals 1
##CE 1
supervision 1
mineral 1
Chemical 1
Slovakia 1
alley 1
hub 1
##az 1
heroes 1
Creative 1
##AM 1
incredible 1
politically 1
ESPN 1
yanked 1
halls 1
Aboriginal 1
Greatest 1
yield 1
##20 1
congressional 1
robot 1
Kiss 1
welcomed 1
MS 1
speeds 1
proceed 1
Sherman 1
eased 1
Greene 1
Walsh 1
Geoffrey 1
variables 1
rocky 1
##print 1
acclaim 1
Reverend 1
Wonder 1
tonnes 1
recurring 1
Dawson 1
continent 1
finite 1
AP 1
continental 1
ID 1
facilitate 1
essays 1
Rafael 1
Neal 1
1833 1
ancestors 1
##met 1
##gic 1
Especially 1
teenage 1
frustrated 1
Jules 1
cock 1
expense 1
##oli 1
##old 1
blocking 1
Notable 1
prohibited 1
ca 1
dock 1
organize 1
##wald 1
Burma 1
Gloria 1
dimension 1
aftermath 1
choosing 1
Mickey 1
torpedo 1
pub 1
##used 1
manuscripts 1
laps 1
Ulster 1
staircase 1
sphere 1
Insurance 1
Contest 1
lens 1
risks 1
investigations 1
ERA 1
glare 1
##play 1
Graduate 1
auction 1
Chronicle 1
##tric 1
##50 1
Coming 1
seating 1
Wade 1
seeks 1
inland 1
Thames 1
Rather 1
butterfly 1
contracted 1
positioned 1
consumers 1
contestants 1
fragments 1
Yankees 1
Santos 1
administrator 1
hypothesis 1
retire 1
Denis 1
agreements 1
Winnipeg 1
##rill 1
1820 1
trophy 1
crap 1
shakes 1
Jenkins 1
##rium 1
ya 1
twist 1
labels 1
Maritime 1
##lings 1
##iv 1
111 1
##ensis 1
Cairo 1
Anything 1
##fort 1
opinions 1
crowded 1
##nian 1
abandon 1
##iff 1
drained 1
imported 1
##rr 1
tended 1
##rain 1
Going 1
introducing 1
sculptures 1
bankruptcy 1
danced 1
demonstration 1
stance 1
settings 1
gazed 1
abstract 1
pet 1
Calvin 1
stiff 1
strongest 1
wrestler 1
##dre 1
Republicans 1
grace 1
allocated 1
cursed 1
snail 1
advancing 1
Return 1
errors 1
Mall 1
presenting 1
eliminate 1
Amateur 1
Institution 1
counting 1
##wind 1
warehouse 1
##nde 1
Ethiopia 1
trailed 1
hollow 1
##press 1
Literary 1
capability 1
nursing 1
preceding 1
lamp 1
Thomson 1
Morton 1
##ctic 1
Crew 1
Close 1
composers 1
boom 1
Clare 1
missiles 1
112 1
hunter 1
snap 1
##oni 1
##tail 1
Us 1
declaration 1
##cock 1
rally 1
huh 1
lion 1
straightened 1
Philippe 1
Sutton 1
alpha 1
valued 1
maker 1
navigation 1
detected 1
favorable 1
perception 1
Charter 1
##ña 1
Ricky 1
rebounds 1
tunnels 1
slapped 1
Emergency 1
supposedly 1
##act 1
deployment 1
socialist 1
tubes 1
anybody 1
corn 1
##NA 1
Seminary 1
heating 1
pump 1
##AA 1
achieving 1
souls 1
##ass 1
Link 1
##ele 1
##smith 1
greeted 1
Bates 1
Americas 1
Elder 1
cure 1
contestant 1
240 1
fold 1
Runner 1
Uh 1
licked 1
Politics 1
committees 1
neighbors 1
fairy 1
Silva 1
Leipzig 1
tipped 1
correctly 1
exciting 1
electronics 1
foundations 1
cottage 1
governmental 1
##hat 1
allied 1
claws 1
presidency 1
cruel 1
Agreement 1
slender 1
accompanying 1
precisely 1
##pass 1
driveway 1
swim 1
Stand 1
crews 1
##mission 1
rely 1
everyday 1
Wings 1
demo 1
##hic 1
recreational 1
min 1
nationality 1
##duction 1
Easter 1
##hole 1
canvas 1
Kay 1
Leicester 1
talented 1
Discovery 1
shells 1
##ech 1
Kerry 1
Ferguson 1
Leave 1
##place 1
altogether 1
adopt 1
butt 1
wolves 1
##nsis 1
##ania 1
modest 1
soprano 1
Boris 1
##ught 1
electron 1
depicts 1
hid 1
cruise 1
differ 1
treasure 1
##nch 1
Gun 1
Mama 1
Bengali 1
trainer 1
merchants 1
innovation 1
presumably 1
Shirley 1
bottles 1
proceeds 1
Fear 1
invested 1
Pirates 1
particle 1
Dominic 1
blamed 1
Fight 1
Daisy 1
##pper 1
##graphic 1
nods 1
knight 1
Doyle 1
tales 1
Carnegie 1
Evil 1
Inter 1
Shore 1
Nixon 1
transform 1
Savannah 1
##gas 1
Baltic 1
stretching 1
worlds 1
protocol 1
Percy 1
Toby 1
Heroes 1
brave 1
dancers 1
##aria 1
backwards 1
responses 1
Chi 1
Gaelic 1
Berry 1
crush 1
embarked 1
promises 1
Madonna 1
researcher 1
realised 1
inaugurated 1
Cherry 1
Mikhail 1
Nottingham 1
reinforced 1
subspecies 1
rapper 1
##kie 1
Dreams 1
Re 1
Damon 1
Minneapolis 1
monsters 1
suspicion 1
Tel 1
surroundings 1
afterward 1
complaints 1
OF 1
sectors 1
Algeria 1
lanes 1
Sabha 1
objectives 1
Donna 1
bothered 1
distracted 1
deciding 1
##ives 1
##CA 1
##onia 1
bishops 1
Strange 1
machinery 1
Voiced 1
synthesis 1
reflects 1
interference 1
##TS 1
##ury 1
keen 1
##ign 1
frown 1
freestyle 1
ton 1
Dixon 1
Sacred 1
Ruby 1
Prison 1
##ión 1
1825 1
outfit 1
##tain 1
curiosity 1
##ight 1
frames 1
steadily 1
emigrated 1
horizon 1
##erly 1
Doc 1
philosophical 1
Table 1
UTC 1
Marina 1
##DA 1
secular 1
##eed 1
Zimbabwe 1
cops 1
Mack 1
sheriff 1
Sanskrit 1
Francesco 1
catches 1
questioning 1
streaming 1
Kill 1
testimony 1
hissed 1
tackle 1
countryside 1
copyright 1
##IP 1
Buddhism 1
##rator 1
ladder 1
##ON 1
Past 1
rookie 1
depths 1
##yama 1
##ister 1
##HS 1
Samantha 1
Dana 1
Educational 1
brows 1
Hammond 1
raids 1
envelope 1
##sco 1
##hart 1
##ulus 1
epic 1
detection 1
Streets 1
Potter 1
statistical 1
für 1
ni 1
accounting 1
##pot 1
employer 1
Sidney 1
Depression 1
commands 1
Tracks 1
averaged 1
lets 1
Ram 1
longtime 1
suits 1
branded 1
chip 1
Shield 1
loans 1
ought 1
Said 1
sip 1
##rome 1
requests 1
Vernon 1
bordered 1
veterans 1
##ament 1
Marsh 1
Herzegovina 1
Pine 1
##igo 1
mills 1
anticipation 1
reconnaissance 1
##ef 1
expectations 1
protested 1
arrow 1
guessed 1
depot 1
maternal 1
weakness 1
##ap 1
projected 1
pour 1
Carmen 1
provider 1
newer 1
remind 1
freed 1
##rily 1
##wal 1
##tones 1
intentions 1
Fiji 1
timing 1
Match 1
managers 1
Kosovo 1
Herman 1
Wesley 1
Chang 1
135 1
semifinals 1
shouting 1
Indo 1
Janeiro 1
Chess 1
Macedonia 1
Buck 1
##onies 1
rulers 1
Mail 1
##vas 1
##sel 1
MHz 1
Programme 1
Task 1
commercially 1
subtle 1
propaganda 1
spelled 1
bowling 1
basically 1
Raven 1
1828 1
Colony 1
109 1
##ingham 1
##wara 1
anticipated 1
1829 1
##iers 1
graduates 1
##rton 1
##fication 1
endangered 1
ISO 1
diagnosed 1
##tage 1
exercises 1
Battery 1
bolt 1
poison 1
cartoon 1
##ción 1
hood 1
bowed 1
heal 1
Meyer 1
Reagan 1
##wed 1
subfamily 1
##gent 1
momentum 1
infant 1
detect 1
##sse 1
Chapman 1
Darwin 1
mechanics 1
NSW 1
Cancer 1
Brooke 1
Nuclear 1
comprised 1
hire 1
sanctuary 1
wingspan 1
contrary 1
remembering 1
surprising 1
Basic 1
stealing 1
OS 1
hatred 1
##lled 1
masters 1
violation 1
Rule 1
##nger 1
assuming 1
conquered 1
louder 1
robe 1
Beatles 1
legitimate 1
##vation 1
massacre 1
Rica 1
unsuccessfully 1
poets 1
##enberg 1
careers 1
doubled 1
premier 1
battalions 1
Dubai 1
Paper 1
Louisville 1
gestured 1
dressing 1
successive 1
mumbled 1
Vic 1
referee 1
pupil 1
##cated 1
##rre 1
ceremonies 1
picks 1
##IN 1
diplomat 1
alike 1
geographical 1
rays 1
##HA 1
##read 1
harbour 1
factories 1
pastor 1
playwright 1
Ultimate 1
nationalist 1
uniforms 1
obtaining 1
kit 1
Amber 1
##pling 1
screenwriter 1
ancestry 1
##cott 1
Fields 1
PR 1
Coleman 1
rat 1
Bavaria 1
squeeze 1
highlighted 1
Adult 1
reflecting 1
Mel 1
1824 1
bicycle 1
organizing 1
sided 1
Previously 1
Underground 1
Prof 1
athletics 1
coupled 1
mortal 1
Hampton 1
worthy 1
immune 1
Ava 1
##gun 1
encouraging 1
simplified 1
##ssa 1
##nte 1
##ann 1
Providence 1
entities 1
Pablo 1
Strong 1
Housing 1
##ista 1
##ators 1
kidnapped 1
mosque 1
Kirk 1
whispers 1
fruits 1
shattered 1
fossil 1
Empress 1
Johns 1
Webster 1
Thing 1
refusing 1
differently 1
specimen 1
Ha 1
##EN 1
##tina 1
##elle 1
##night 1
Horn 1
neighbourhood 1
Bolivia 1
##rth 1
genres 1
Pre 1
##vich 1
Amelia 1
swallow 1
Tribune 1
Forever 1
Psychology 1
Use 1
##bers 1
Gazette 1
ash 1
##usa 1
Monster 1
##cular 1
delegation 1
blowing 1
Oblast 1
retreated 1
automobile 1
##ex 1
profits 1
shirts 1
devil 1
Treasury 1
##backs 1
Drums 1
Ronnie 1
gameplay 1
expertise 1
Evening 1
resides 1
Caesar 1
unity 1
Crazy 1
linking 1
Vision 1
donations 1
Isabel 1
valve 1
Sue 1
WWE 1
logical 1
availability 1
fitting 1
revolt 1
##mill 1
Linux 1
taxi 1
Access 1
pollution 1
statues 1
Augustus 1
##pen 1
cello 1
##some 1
lacking 1
##ati 1
Gwen 1
##aka 1
##ovich 1
1821 1
Wow 1
initiatives 1
Uruguay 1
Cain 1
stroked 1
examine 1
##ī 1
mentor 1
moist 1
disorders 1
buttons 1
##tica 1
##anna 1
Species 1
Lynch 1
museums 1
scorer 1
Poor 1
eligibility 1
op 1
unveiled 1
cats 1
Title 1
wheat 1
critically 1
Syracuse 1
##osis 1
marketed 1
enhance 1
Ryder 1
##NG 1
##ull 1
##rna 1
embedded 1
throws 1
foods 1
happily 1
##ami 1
lesson 1
formats 1
punched 1
##rno 1
expressions 1
qualities 1
##sal 1
Gods 1
##lity 1
elect 1
wives 1
##lling 1
jungle 1
Toyota 1
reversed 1
Grammar 1
Cloud 1
Agnes 1
##ules 1
disputed 1
verses 1
Lucien 1
threshold 1
##rea 1
scanned 1
##bled 1
##dley 1
##lice 1
Kazakhstan 1
Gardner 1
Freeman 1
##rz 1
inspection 1
Rita 1
accommodation 1
advances 1
chill 1
Elliot 1
thriller 1
Constantinople 1
##mos 1
debris 1
whoever 1
1810 1
Santo 1
Carey 1
remnants 1
Guatemala 1
##irs 1
carriers 1
equations 1
mandatory 1
##WA 1
anxious 1
measurement 1
Summit 1
Terminal 1
Erin 1
##zes 1
LLC 1
##uo 1
glancing 1
sin 1
##₃ 1
Downtown 1
flowering 1
Euro 1
Leigh 1
Lance 1
warn 1
decent 1
recommendations 1
##ote 1
Quartet 1
##rrell 1
Clarence 1
colleague 1
guarantee 1
230 1
Clayton 1
Beast 1
addresses 1
prospect 1
destroyer 1
vegetables 1
Leadership 1
fatal 1
prints 1
190 1
##makers 1
Hyde 1
persuaded 1
illustrations 1
Southampton 1
Joyce 1
beats 1
editors 1
mount 1
##grave 1
Malaysian 1
Bombay 1
endorsed 1
##sian 1
##bee 1
applying 1
Religion 1
nautical 1
bomber 1
Na 1
airfield 1
gravel 1
##rew 1
Cave 1
bye 1
dig 1
decree 1
burden 1
Election 1
Hawk 1
Fe 1
##iled 1
reunited 1
##tland 1
liver 1
Teams 1
Put 1
delegates 1
Ella 1
##fect 1
Cal 1
invention 1
Castro 1
bored 1
##kawa 1
##ail 1
Trinidad 1
NASCAR 1
pond 1
develops 1
##pton 1
expenses 1
Zoe 1
Released 1
##rf 1
organs 1
beta 1
parameters 1
Neill 1
##lene 1
lateral 1
Beat 1
blades 1
Either 1
##hale 1
Mitch 1
##ET 1
##vous 1
Rod 1
burnt 1
phones 1
Rising 1
##front 1
investigating 1
##dent 1
Stephanie 1
##keeper 1
screening 1
##uro 1
Swan 1
Sinclair 1
modes 1
bullets 1
Nigerian 1
melody 1
##ques 1
Rifle 1
##12 1
128 1
##jin 1
charm 1
Venus 1
##tian 1
fusion 1
advocated 1
visitor 1
pinned 1
genera 1
3000 1
Ferry 1
Solo 1
quantity 1
regained 1
platinum 1
shoots 1
narrowly 1
preceded 1
update 1
##ichi 1
equality 1
unaware 1
regiments 1
ally 1
##tos 1
transmitter 1
locks 1
Seeing 1
outlets 1
feast 1
reopened 1
##ows 1
struggles 1
Buddy 1
1826 1
bark 1
elegant 1
amused 1
Pretty 1
themed 1
schemes 1
Lisbon 1
Te 1
patted 1
terrorism 1
Mystery 1
##croft 1
##imo 1
Madagascar 1
Journey 1
dealer 1
contacted 1
##quez 1
ITV 1
vacation 1
Wong 1
Sacramento 1
organisms 1
##pts 1
balcony 1
coloured 1
sheer 1
defines 1
MC 1
abortion 1
forbidden 1
accredited 1
Newfoundland 1
tendency 1
entrepreneur 1
Benny 1
Tanzania 1
needing 1
finalist 1
mythology 1
weakened 1
gown 1
sentences 1
Guest 1
websites 1
Tibetan 1
UFC 1
voluntary 1
annoyed 1
Welcome 1
honestly 1
correspondence 1
geometry 1
Deutsche 1
Biology 1
Help 1
##aya 1
Lines 1
Hector 1
##ael 1
reluctant 1
##ages 1
wears 1
inquiry 1
##dell 1
Holocaust 1
Tourism 1
Wei 1
volcanic 1
##mates 1
Visual 1
sorts 1
neighborhoods 1
Running 1
apple 1
shy 1
Laws 1
bend 1
Northeast 1
feminist 1
Speedway 1
Murder 1
visa 1
stuffed 1
fangs 1
transmitted 1
fiscal 1
Ain 1
enlarged 1
##ndi 1
Cecil 1
Peterson 1
Benson 1
Bedford 1
acceptable 1
##CC 1
##wer 1
purely 1
triangle 1
foster 1
Alberto 1
educator 1
Highland 1
acute 1
LGBT 1
Tina 1
Mi 1
adventures 1
Davidson 1
Honda 1
translator 1
monk 1
enacted 1
summoned 1
##ional 1
collector 1
Genesis 1
Un 1
liner 1
Di 1
Statistical 1
##CS 1
filter 1
Knox 1
Religious 1
Stella 1
Estonian 1
Turn 1
##ots 1
primitive 1
parishes 1
##lles 1
complexity 1
autobiography 1
rigid 1
cannon 1
pursuing 1
exploring 1
##gram 1
##mme 1
freshman 1
caves 1
Expedition 1
Traditional 1
iTunes 1
certification 1
cooling 1
##ort 1
##gna 1
##IT 1
##lman 1
##VA 1
Motion 1
explosive 1
licence 1
boxer 1
shrine 1
loosely 1
Brigadier 1
Savage 1
Brett 1
MVP 1
heavier 1
##elli 1
##gged 1
Buddha 1
Easy 1
spells 1
fails 1
incredibly 1
Georg 1
stern 1
compatible 1
Perfect 1
applies 1
cognitive 1
excessive 1
nightmare 1
neighbor 1
Sicily 1
appealed 1
static 1
##₁ 1
Aberdeen 1
##leigh 1
slipping 1
bride 1
##guard 1
Um 1
Clyde 1
1818 1
##gible 1
Hal 1
Frost 1
Sanders 1
interactive 1
Hour 1
##vor 1
hurting 1
bull 1
termed 1
shelf 1
capturing 1
##pace 1
rolls 1
113 1
##bor 1
Chilean 1
teaches 1
##rey 1
exam 1
shipped 1
Twin 1
borrowed 1
##lift 1
Shit 1
##hot 1
Lindsay 1
Below 1
Kiev 1
Lin 1
leased 1
##sto 1
Eli 1
Diane 1
Val 1
subtropical 1
shoe 1
Bolton 1
Dragons 1
##rification 1
Vatican 1
##pathy 1
Crisis 1
dramatically 1
talents 1
babies 1
##ores 1
surname 1
##AP 1
##cology 1
cubic 1
opted 1
Archer 1
sweep 1
tends 1
Karnataka 1
Judy 1
stint 1
Similar 1
##nut 1
explicitly 1
##nga 1
interact 1
Mae 1
portfolio 1
clinic 1
abbreviated 1
Counties 1
##iko 1
hearts 1
##ı 1
providers 1
screams 1
Individual 1
##etti 1
Monument 1
##iana 1
accessed 1
encounters 1
gasp 1
##rge 1
defunct 1
Avery 1
##rne 1
nobility 1
useless 1
Phase 1
Vince 1
senator 1
##FL 1
1813 1
surprisingly 1
##illo 1
##chin 1
Boyd 1
rumors 1
equity 1
Gone 1
Hearts 1
chassis 1
overnight 1
Trek 1
wrists 1
submit 1
civic 1
designers 1
##rity 1
prominence 1
decorative 1
derives 1
starter 1
##AF 1
wisdom 1
Powers 1
reluctantly 1
measurements 1
doctoral 1
Noel 1
Gideon 1
Baden 1
Cologne 1
lawn 1
Hawaiian 1
anthology 1
##rov 1
Raiders 1
embassy 1
Sterling 1
##pal 1
Telugu 1
troubled 1
##FC 1
##bian 1
fountain 1
observe 1
ore 1
##uru 1
##gence 1
spelling 1
Border 1
grinning 1
sketch 1
Benedict 1
Xbox 1
dialects 1
readily 1
immigrant 1
Constitutional 1
aided 1
nevertheless 1
SE 1
tragedy 1
##ager 1
##rden 1
Flash 1
##MP 1
Europa 1
emissions 1
##ield 1
panties 1
Beverly 1
Homer 1
curtain 1
##oto 1
toilet 1
Isn 1
Jerome 1
Chiefs 1
Hermann 1
supernatural 1
juice 1
integrity 1
Scots 1
auto 1
Patriots 1
Strategic 1
engaging 1
prosecution 1
cleaned 1
Byron 1
investments 1
adequate 1
vacuum 1
laughs 1
##inus 1
##nge 1
Usually 1
Roth 1
Cities 1
Brand 1
corpse 1
##ffy 1
Gas 1
rifles 1
Plains 1
sponsorship 1
Levi 1
tray 1
owed 1
della 1
commanders 1
##ead 1
tactical 1
##rion 1
García 1
harbor 1
discharge 1
##hausen 1
gentleman 1
endless 1
highways 1
##itarian 1
pleaded 1
##eta 1
archive 1
Midnight 1
exceptions 1
instances 1
Gibraltar 1
cart 1
##NS 1
Darren 1
Bonnie 1
##yle 1
##iva 1
OCLC 1
bra 1
Jess 1
##EA 1
consulting 1
Archives 1
Chance 1
distances 1
commissioner 1
##AR 1
LL 1
sailors 1
##sters 1
enthusiasm 1
Lang 1
##zia 1
Yugoslav 1
confirm 1
possibilities 1
Suffolk 1
##eman 1
banner 1
1822 1
Supporting 1
fingertips 1
civilization 1
##gos 1
technically 1
1827 1
Hastings 1
sidewalk 1
strained 1
monuments 1
Floyd 1
Chennai 1
Elvis 1
villagers 1
Cumberland 1
strode 1
albeit 1
Believe 1
planets 1
combining 1
Mohammad 1
container 1
##mouth 1
##tures 1
verb 1
BA 1
Tank 1
Midland 1
screened 1
Gang 1
Democracy 1
Helsinki 1
screens 1
thread 1
charitable 1
##version 1
swiftly 1
ma 1
rational 1
combine 1
##SS 1
##antly 1
dragging 1
Cliff 1
Tasmania 1
quest 1
professionally 1
##aj 1
rap 1
##lion 1
livestock 1
##hua 1
informal 1
specially 1
lonely 1
Matthews 1
Dictionary 1
1816 1
Observatory 1
correspondent 1
constitute 1
homeless 1
waving 1
appreciated 1
Analysis 1
Meeting 1
dagger 1
##AL 1
Gandhi 1
flank 1
Giant 1
Choir 1
##not 1
glimpse 1
toe 1
Writer 1
teasing 1
springs 1
##dt 1
Glory 1
healthcare 1
regulated 1
complaint 1
math 1
Publications 1
makers 1
##hips 1
cement 1
Need 1
apologize 1
disputes 1
finishes 1
Partners 1
boring 1
ups 1
gains 1
1793 1
Congressional 1
clergy 1
Folk 1
##made 1
##nza 1
Waters 1
stays 1
encoded 1
spider 1
betrayed 1
Applied 1
inception 1
##urt 1
##zzo 1
wards 1
bells 1
UCLA 1
Worth 1
bombers 1
Mo 1
trademark 1
Piper 1
##vel 1
incorporates 1
1801 1
##cial 1
dim 1
Twelve 1
##word 1
Appeals 1
tighter 1
spacecraft 1
##tine 1
coordinates 1
##iac 1
mistakes 1
Zach 1
laptop 1
Teresa 1
##llar 1
##yr 1
favored 1
Nora 1
sophisticated 1
Irving 1
hammer 1
División 1
corporations 1
niece 1
##rley 1
Patterson 1
UNESCO 1
trafficking 1
Ming 1
balanced 1
plaque 1
Latvia 1
broader 1
##owed 1
Save 1
confined 1
##vable 1
Dalton 1
tide 1
##right 1
##ural 1
##num 1
swords 1
caring 1
##eg 1
IX 1
Acting 1
paved 1
##moto 1
launching 1
Antoine 1
substantially 1
Pride 1
Philharmonic 1
grammar 1
Indoor 1
Ensemble 1
enabling 1
114 1
resided 1
Angelo 1
publicity 1
chaired 1
crawled 1
Maharashtra 1
Telegraph 1
lengthy 1
preference 1
differential 1
anonymous 1
Honey 1
##itation 1
wage 1
##iki 1
consecrated 1
Bryant 1
regulatory 1
Carr 1
##én 1
functioning 1
watches 1
##ú 1
shifts 1
diagnosis 1
Search 1
app 1
Peters 1
##SE 1
##cat 1
Andreas 1
honours 1
temper 1
counsel 1
Urdu 1
Anniversary 1
maritime 1
##uka 1
harmony 1
##unk 1
essence 1
Lorenzo 1
choked 1
Quarter 1
indie 1
##oll 1
loses 1
##prints 1
amendment 1
Adolf 1
scenario 1
similarities 1
##rade 1
##LC 1
technological 1
metric 1
Russians 1
thoroughly 1
##tead 1
cruiser 1
1806 1
##nier 1
1823 1
Teddy 1
##psy 1
au 1
progressed 1
exceptional 1
broadcaster 1
partnered 1
fitness 1
irregular 1
placement 1
mothers 1
unofficial 1
Garion 1
Johannes 1
1817 1
regain 1
Solar 1
publishes 1
Gates 1
Broken 1
thirds 1
conversations 1
dive 1
Raj 1
contributor 1
quantities 1
Worcester 1
governance 1
##flow 1
generating 1
pretending 1
Belarus 1
##voy 1
radius 1
skating 1
Marathon 1
1819 1
affection 1
undertook 1
##wright 1
los 1
##bro 1
locate 1
PS 1
excluded 1
recreation 1
tortured 1
jewelry 1
moaned 1
##logue 1
##cut 1
Complete 1
##rop 1
117 1
##II 1
plantation 1
whipped 1
slower 1
crater 1
##drome 1
Volunteer 1
attributes 1
celebrations 1
regards 1
Publishers 1
oath 1
utilized 1
Robbie 1
Giuseppe 1
fiber 1
indication 1
melted 1
archives 1
Damien 1
storey 1
affecting 1
identifying 1
dances 1
alumni 1
comparable 1
upgrade 1
rented 1
sprint 1
##kle 1
Marty 1
##lous 1
treating 1
railways 1
Lebanese 1
erupted 1
occupy 1
sympathy 1
Jude 1
Darling 1
Qatar 1
drainage 1
McCarthy 1
heel 1
Klein 1
computing 1
wireless 1
flip 1
Du 1
Bella 1
##ast 1
##ssen 1
narrator 1
mist 1
sings 1
alignment 1
121 1
2020 1
securing 1
##rail 1
Progress 1
missionaries 1
brutal 1
mercy 1
##shing 1
Hip 1
##ache 1
##olo 1
switching 1
##here 1
Malay 1
##ob 1
constituted 1
Mohammed 1
Often 1
standings 1
surge 1
teachings 1
ink 1
detached 1
systematic 1
Trial 1
Myanmar 1
##wo 1
offs 1
Reyes 1
decoration 1
translations 1
wherever 1
reviewer 1
speculation 1
Bangkok 1
terminated 1
##ester 1
beard 1
RCA 1
Aidan 1
Associated 1
Emerson 1
Charity 1
1803 1
generous 1
Dudley 1
ATP 1
##haven 1
prizes 1
toxic 1
gloves 1
##iles 1
##dos 1
Turning 1
myth 1
Parade 1
##building 1
Hits 1
##eva 1
teamed 1
Above 1
Duchess 1
Holt 1
##oth 1
Sub 1
Ace 1
atomic 1
inform 1
Ship 1
depend 1
Jun 1
##bes 1
Norwich 1
globe 1
Baroque 1
Christina 1
Cotton 1
Tunnel 1
kidding 1
Concerto 1
Brittany 1
tasted 1
phases 1
stems 1
angles 1
##TE 1
##nam 1
##40 1
charted 1
Alison 1
intensive 1
Willis 1
glory 1
##lit 1
Bergen 1
est 1
taller 1
##dicate 1
labeled 1
##ido 1
commentator 1
Warrior 1
Viscount 1
shortened 1
aisle 1
Aria 1
Spike 1
spectators 1
goodbye 1
overlooking 1
mammals 1
##lude 1
wholly 1
Barrett 1
##gus 1
accompany 1
seventy 1
employ 1
##mb 1
ambitious 1
beloved 1
basket 1
##mma 1
##lding 1
halted 1
descendant 1
pad 1
exclaimed 1
cloak 1
##pet 1
Strait 1
Bang 1
Aviv 1
sadness 1
##ffer 1
Donovan 1
1880s 1
agenda 1
swinging 1
##quin 1
jerk 1
Boat 1
##rist 1
nervously 1
Silence 1
Echo 1
shout 1
implies 1
##iser 1
##cking 1
Shiva 1
Weston 1
damages 1
##tist 1
effectiveness 1
Horace 1
cycling 1
Rey 1
ache 1
Photography 1
PDF 1
Dear 1
leans 1
Lea 1
##vision 1
booth 1
attained 1
disbelief 1
##eus 1
##ution 1
Hop 1
pension 1
toys 1
Eurovision 1
faithful 1
##heads 1
Andre 1
owe 1
default 1
Atlas 1
Megan 1
highlights 1
lovers 1
Constantine 1
Sixth 1
masses 1
##garh 1
emerge 1
Auto 1
Slovak 1
##oa 1
##vert 1
Superintendent 1
flicked 1
inventor 1
Chambers 1
Frankie 1
Romeo 1
pottery 1
companions 1
Rudolf 1
##liers 1
diary 1
Unless 1
tap 1
alter 1
Randall 1
##ddle 1
##eal 1
limitations 1
##boards 1
utterly 1
knelt 1
guaranteed 1
Cowboys 1
Islander 1
horns 1
##ike 1
Wendy 1
sexually 1
Smart 1
breasts 1
##cian 1
compromise 1
Duchy 1
AT 1
Galaxy 1
analog 1
Style 1
##aking 1
weighed 1
Nigel 1
optional 1
Czechoslovakia 1
practicing 1
Ham 1
##0s 1
feedback 1
batted 1
uprising 1
operative 1
applicable 1
criminals 1
classrooms 1
Somehow 1
##ode 1
##OM 1
Naomi 1
Winchester 1
##pping 1
Bart 1
Regina 1
competitor 1
Recorded 1
Yuan 1
Vera 1
lust 1
Confederation 1
##test 1
suck 1
1809 1
Lambert 1
175 1
Friend 1
##ppa 1
Slowly 1
##⁺ 1
Wake 1
Dec 1
##aneous 1
chambers 1
Color 1
Gus 1
##site 1
Alternative 1
##world 1
Exeter 1
Omaha 1
celebrities 1
striker 1
210 1
dwarf 1
meals 1
Oriental 1
Pearson 1
financing 1
revenues 1
underwater 1
Steele 1
screw 1
Feeling 1
Mt 1
acids 1
badge 1
swore 1
theaters 1
Moving 1
admired 1
lung 1
knot 1
penalties 1
116 1
fork 1
##cribed 1
Afghan 1
outskirts 1
Cambodia 1
oval 1
wool 1
fossils 1
Ned 1
Countess 1
Darkness 1
delicious 1
##nica 1
Evelyn 1
Recordings 1
guidelines 1
##CP 1
Sandra 1
meantime 1
Antarctica 1
modeling 1
granddaughter 1
##rial 1
Roma 1
Seventh 1
Sunshine 1
Gabe 1
##nton 1
Shop 1
Turks 1
prolific 1
soup 1
parody 1
##nta 1
Judith 1
disciplines 1
resign 1
Companies 1
Libya 1
Jets 1
inserted 1
Mile 1
retrieve 1
filmmaker 1
##rand 1
realistic 1
unhappy 1
##30 1
sandstone 1
##nas 1
##lent 1
##ush 1
##rous 1
Brent 1
trash 1
Rescue 1
##unted 1
Autumn 1
disgust 1
flexible 1
infinite 1
sideways 1
##oss 1
##vik 1
trailing 1
disturbed 1
50th 1
Newark 1
posthumously 1
##rol 1
Schmidt 1
Josef 1
##eous 1
determining 1
menu 1
Pole 1
Anita 1
Luc 1
peaks 1
118 1
Yard 1
warrant 1
generic 1
deserted 1
Walking 1
stamp 1
tracked 1
##berger 1
paired 1
surveyed 1
sued 1
Rainbow 1
##isk 1
Carpenter 1
submarines 1
realization 1
touches 1
sweeping 1
Fritz 1
module 1
Whether 1
resembles 1
##form 1
##lop 1
unsure 1
hunters 1
Zagreb 1
unemployment 1
Senators 1
Georgetown 1
##onic 1
Barker 1
foul 1
commercials 1
Dresden 1
Words 1
collision 1
Carlton 1
Fashion 1
doubted 1
##ril 1
precision 1
MIT 1
Jacobs 1
mob 1
Monk 1
retaining 1
gotta 1
##rod 1
remake 1
Fast 1
chips 1
##pled 1
sufficiently 1
##lights 1
delivering 1
##enburg 1
Dancing 1
Barton 1
Officers 1
metals 1
##lake 1
religions 1
##ré 1
motivated 1
differs 1
dorsal 1
##birds 1
##rts 1
Priest 1
polished 1
##aling 1
Saxony 1
Wyatt 1
knockout 1
##hor 1
Lopez 1
RNA 1
##link 1
metallic 1
##kas 1
daylight 1
Montenegro 1
##lining 1
wrapping 1
resemble 1
Jam 1
Viking 1
uncertainty 1
angels 1
enables 1
##fy 1
Stuttgart 1
tricks 1
tattoo 1
127 1
wicked 1
asset 1
breach 1
##yman 1
MW 1
breaths 1
Jung 1
im 1
1798 1
noon 1
vowel 1
##qua 1
calmly 1
seasonal 1
chat 1
ingredients 1
cooled 1
Randolph 1
ensuring 1
##ib 1
##idal 1
flashing 1
1808 1
Macedonian 1
Cool 1
councils 1
##lick 1
advantages 1
Immediately 1
Madras 1
##cked 1
Pain 1
fancy 1
chronic 1
Malayalam 1
begged 1
##nese 1
Inner 1
feathers 1
##vey 1
Names 1
dedication 1
Sing 1
pan 1
Fischer 1
nurses 1
Sharp 1
inning 1
stamps 1
Meg 1
##ello 1
edged 1
motioned 1
Jacksonville 1
##ffle 1
##dic 1
##US 1
divide 1
garnered 1
Ranking 1
chasing 1
modifications 1
##oc 1
clever 1
midst 1
flushed 1
##DP 1
void 1
##sby 1
ambulance 1
beaches 1
groan 1
isolation 1
strengthen 1
prevention 1
##ffs 1
Scouts 1
reformed 1
geographic 1
squadrons 1
Fiona 1
Kai 1
Consequently 1
##uss 1
overtime 1
##yas 1
Fr 1
##BL 1
Papua 1
Mixed 1
glances 1
Haiti 1
Sporting 1
sandy 1
confronted 1
René 1
Tanner 1
1811 1
##IM 1
advisory 1
trim 1
##ibe 1
González 1
gambling 1
Jupiter 1
##ility 1
##owski 1
##nar 1
122 1
apology 1
teased 1
Pool 1
feminine 1
wicket 1
eagle 1
shiny 1
##lator 1
blend 1
peaking 1
nasty 1
nodding 1
fraction 1
tech 1
Noble 1
Kuwait 1
brushing 1
Italia 1
Canberra 1
duet 1
Johan 1
1805 1
Written 1
cameo 1
Stalin 1
pig 1
cord 1
##zio 1
Surely 1
SA 1
owing 1
holidays 1
123 1
Ranger 1
lighthouse 1
##ige 1
miners 1
1804 1
##ë 1
##gren 1
##ried 1
crashing 1
##atory 1
wartime 1
highlight 1
inclined 1
Torres 1
Tax 1
##zel 1
##oud 1
Own 1
##corn 1
Divine 1
EMI 1
Relief 1
Northwestern 1
ethics 1
BMW 1
click 1
plasma 1
Christie 1
coordinator 1
Shepherd 1
washing 1
cooked 1
##dio 1
##eat 1
Cerambycidae 1
algebra 1
Engine 1
costumes 1
Vampire 1
vault 1
submission 1
virtue 1
assumption 1
##rell 1
Toledo 1
##oting 1
##rva 1
crept 1
emphasized 1
##lton 1
##ood 1
Greeks 1
surgical 1
crest 1
Patrol 1
Beta 1
Tessa 1
##GS 1
pizza 1
traits 1
rats 1
Iris 1
spray 1
##GC 1
Lightning 1
binary 1
escapes 1
##take 1
Clary 1
crowds 1
##zong 1
hauled 1
maid 1
##fen 1
Manning 1
##yang 1
Nielsen 1
aesthetic 1
sympathetic 1
affiliation 1
soaked 1
Mozart 1
personalities 1
begging 1
##iga 1
clip 1
Raphael 1
yearly 1
Lima 1
abundant 1
##lm 1
1794 1
strips 1
Initiative 1
reporters 1
##vsky 1
consolidated 1
##itated 1
Civic 1
rankings 1
mandate 1
symbolic 1
##ively 1
1807 1
rental 1
duck 1
nave 1
complications 1
##nor 1
Irene 1
Nazis 1
haunted 1
scholarly 1
Pratt 1
Gran 1
Embassy 1
Wave 1
pity 1
genius 1
bats 1
canton 1
Tropical 1
marker 1
##cos 1
escorted 1
Climate 1
##posed 1
appreciation 1
freezing 1
puzzle 1
Internal 1
pools 1
Shawn 1
pathway 1
Daniels 1
Fitzgerald 1
extant 1
olive 1
Vanessa 1
marriages 1
cocked 1
##dging 1
prone 1
chemicals 1
doll 1
drawer 1
##HF 1
Stark 1
Property 1
##tai 1
flowed 1
Sheridan 1
##uated 1
Less 1
Omar 1
remarks 1
catalogue 1
Seymour 1
wreck 1
Carrie 1
##bby 1
Mercer 1
displaced 1
sovereignty 1
rip 1
Flynn 1
Archie 1
Quarterfinals 1
Hassan 1
##ards 1
vein 1
Osaka 1
pouring 1
wages 1
Romance 1
##cript 1
##phere 1
550 1
##eil 1
##stown 1
Documentary 1
ancestor 1
CNN 1
Panthers 1
publishers 1
Rise 1
##mu 1
biting 1
Bright 1
String 1
succeeding 1
119 1
loaned 1
Warwick 1
Sheikh 1
Von 1
Afterwards 1
Jax 1
Camden 1
helicopters 1
Hence 1
Laurel 1
##ddy 1
transaction 1
Corp 1
clause 1
##owing 1
##kel 1
Investment 1
cups 1
Lucia 1
Moss 1
Giles 1
chef 1
López 1
decisive 1
30th 1
distress 1
linguistic 1
surveys 1
Ready 1
maiden 1
Touch 1
frontier 1
incorporate 1
exotic 1
mollusk 1
Leopold 1
Ride 1
##wain 1
##ndo 1
teammates 1
tones 1
drift 1
ordering 1
Feb 1
Penny 1
Normandy 1
Present 1
Flag 1
pipes 1
##rro 1
delight 1
motto 1
Tibet 1
leap 1
Eliza 1
Produced 1
teenagers 1
sitcom 1
Try 1
Hansen 1
Cody 1
wandered 1
terrestrial 1
frog 1
scare 1
resisted 1
employers 1
coined 1
##DS 1
resistant 1
Fly 1
captive 1
dissolution 1
judged 1
associates 1
defining 1
##court 1
Hale 1
##mbo 1
raises 1
clusters 1
twelfth 1
##metric 1
Roads 1
##itude 1
satisfy 1
Android 1
Reds 1
Gloucester 1
Category 1
Valencia 1
Daemon 1
stabbed 1
Luna 1
Churches 1
Canton 1
##eller 1
Attack 1
Kashmir 1
annexed 1
grabs 1
asteroid 1
Hartford 1
recommendation 1
Rodriguez 1
handing 1
stressed 1
frequencies 1
delegate 1
Bones 1
Erie 1
Weber 1
Hands 1
Acts 1
millimetres 1
24th 1
Fat 1
Howe 1
casually 1
##SL 1
convent 1
1790 1
IF 1
##sity 1
1795 1
yelling 1
##ises 1
drain 1
addressing 1
amino 1
Marcel 1
Sylvia 1
Paramount 1
Gerard 1
Volleyball 1
butter 1
124 1
Albion 1
##GB 1
triggered 1
1792 1
folding 1
accepts 1
##ße 1
preparations 1
Wimbledon 1
dose 1
##grass 1
escaping 1
##tling 1
import 1
charging 1
##dation 1
280 1
Nolan 1
##fried 1
Calcutta 1
##pool 1
Cove 1
examining 1
minded 1
heartbeat 1
twisting 1
domains 1
bush 1
Tunisia 1
Purple 1
Leone 1
##code 1
evacuated 1
battlefield 1
tiger 1
Electrical 1
##ared 1
chased 1
##cre 1
cultivated 1
Jet 1
solved 1
shrug 1
ringing 1
Impact 1
##iant 1
kilometre 1
##log 1
commemorate 1
migrated 1
singular 1
designing 1
promptly 1
Higgins 1
##own 1
##aves 1
freshwater 1
Marketing 1
Payne 1
beg 1
locker 1
pray 1
implied 1
AAA 1
corrected 1
Trans 1
Europeans 1
Ashe 1
acknowledge 1
Introduction 1
##writer 1
##llen 1
Munster 1
auxiliary 1
growl 1
Hours 1
Poems 1
##AT 1
reduces 1
Plain 1
plague 1
canceled 1
detention 1
polite 1
necklace 1
Gustav 1
##gu 1
##lance 1
En 1
Angola 1
##bb 1
dwelling 1
##hea 1
5000 1
Qing 1
Dodgers 1
rim 1
##ored 1
##haus 1
spilled 1
Elisabeth 1
Viktor 1
backpack 1
1802 1
amended 1
##worthy 1
Phantom 1
##ctive 1
keeper 1
##loom 1
Vikings 1
##gua 1
employs 1
Tehran 1
specialty 1
##bate 1
Marx 1
Mirror 1
Jenna 1
rides 1
needle 1
prayers 1
clarinet 1
forewings 1
##walk 1
Midlands 1
convincing 1
advocacy 1
Cao 1
Birds 1
cycles 1
Clement 1
Gil 1
bubble 1
Maximum 1
humanitarian 1
Tan 1
cries 1
##SI 1
Parsons 1
Trio 1
offshore 1
Innovation 1
clutched 1
260 1
##mund 1
##duct 1
Prairie 1
relied 1
Falcon 1
##ste 1
Kolkata 1
Gill 1
Swift 1
Negro 1
Zoo 1
valleys 1
##OL 1
Opening 1
beams 1
MPs 1
outline 1
Bermuda 1
Personal 1
exceed 1
productive 1
##MT 1
republic 1
forum 1
##sty 1
tornado 1
Known 1
dipped 1
Edith 1
folks 1
mathematician 1
watershed 1
Ricardo 1
synthetic 1
##dication 1
deity 1
##₄ 1
gaming 1
subjected 1
suspects 1
Foot 1
swollen 1
Motors 1
##tty 1
##ý 1
aloud 1
ceremonial 1
es 1
nuts 1
intend 1
Carlisle 1
tasked 1
hesitation 1
sponsors 1
unified 1
inmates 1
##ctions 1
##stan 1
tiles 1
jokes 1
whereby 1
outcomes 1
Lights 1
scary 1
Stoke 1
Portrait 1
Blind 1
sergeant 1
violations 1
cultivation 1
fuselage 1
Mister 1
Alfonso 1
candy 1
sticks 1
teen 1
agony 1
Enough 1
invite 1
Perkins 1
Appeal 1
mapping 1
undergo 1
Glacier 1
Melanie 1
affects 1
incomplete 1
##dd 1
Colombian 1
##nate 1
CBC 1
purchasing 1
bypass 1
Drug 1
Electronics 1
Frontier 1
Coventry 1
##aan 1
autonomy 1
scrambled 1
Recent 1
bounced 1
cow 1
experiencing 1
Rouge 1
cuisine 1
Elite 1
disability 1
Ji 1
inheritance 1
wildly 1
Into 1
##wig 1
confrontation 1
Wheeler 1
shiver 1
Performing 1
aligned 1
consequently 1
Alexis 1
Sin 1
woodland 1
executives 1
Stevenson 1
Ferrari 1
inevitable 1
##cist 1
##dha 1
##base 1
Corner 1
comeback 1
León 1
##eck 1
##urus 1
MacDonald 1
pioneering 1
breakdown 1
landscapes 1
Veterans 1
Rican 1
Theological 1
stirred 1
participant 1
Credit 1
Hyderabad 1
snails 1
Claudia 1
##ocene 1
compliance 1
##MI 1
Flags 1
Middlesex 1
storms 1
winding 1
asserted 1
er 1
##ault 1
##kal 1
waking 1
##rates 1
abbey 1
Augusta 1
tooth 1
trustees 1
Commodore 1
##uded 1
Cunningham 1
NC 1
Witch 1
marching 1
Sword 1
Same 1
spiral 1
Harley 1
##ahan 1
Zack 1
Audio 1
1890s 1
##fit 1
Simmons 1
Kara 1
Veronica 1
negotiated 1
Speaking 1
FIBA 1
Conservatory 1
formations 1
constituencies 1
explicit 1
facial 1
eleventh 1
##ilt 1
villain 1
##dog 1
##case 1
##hol 1
armored 1
tin 1
hairs 1
##umi 1
##rai 1
mattress 1
Angus 1
cease 1
verbal 1
Recreation 1
savings 1
Aurora 1
peers 1
Monastery 1
Airways 1
drowned 1
additions 1
downstream 1
sticking 1
Shi 1
mice 1
skiing 1
##CD 1
Raw 1
Riverside 1
warming 1
hooked 1
boost 1
memorable 1
posed 1
treatments 1
320 1
##dai 1
celebrating 1
blink 1
helpless 1
circa 1
Flowers 1
PM 1
uncommon 1
Oct 1
Hawks 1
overwhelmed 1
Sparhawk 1
repaired 1
Mercy 1
pose 1
counterpart 1
compare 1
survives 1
##½ 1
##eum 1
coordinate 1
Lil 1
grandchildren 1
notorious 1
Yi 1
Judaism 1
Juliet 1
accusations 1
1789 1
floated 1
marathon 1
roar 1
fortified 1
reunion 1
145 1
Nov 1
Paula 1
##fare 1
##toria 1
tearing 1
Cedar 1
disappearance 1
Si 1
gifted 1
scar 1
270 1
PBS 1
Technologies 1
Marvin 1
650 1
roller 1
cupped 1
negotiate 1
##erman 1
passport 1
tram 1
miracle 1
styled 1
##tier 1
necessity 1
Des 1
rehabilitation 1
Lara 1
USD 1
psychic 1
wipe 1
##lem 1
mistaken 1
##lov 1
charming 1
Rider 1
pageant 1
dynamics 1
Cassidy 1
##icus 1
defenses 1
##tadt 1
##vant 1
aging 1
##inal 1
declare 1
mistress 1
supervised 1
##alis 1
##rest 1
Ashton 1
submerged 1
sack 1
Dodge 1
grocery 1
ramp 1
Teacher 1
lineage 1
imagery 1
arrange 1
inscriptions 1
Organisation 1
Siege 1
combines 1
pounded 1
Fleming 1
legends 1
columnist 1
Apostolic 1
prose 1
insight 1
Arabian 1
expired 1
##uses 1
##nos 1
Alone 1
elbows 1
##asis 1
##adi 1
##combe 1
Step 1
Waterloo 1
Alternate 1
interval 1
Sonny 1
plains 1
Goals 1
incorporating 1
recruit 1
adjoining 1
Cheshire 1
excluding 1
marrying 1
ducked 1
Cherokee 1
par 1
##inate 1
hiking 1
Coal 1
##bow 1
natives 1
ribbon 1
Allies 1
con 1
descriptions 1
positively 1
##lal 1
defendant 1
22nd 1
Vivian 1
##beat 1
Weather 1
possessions 1
Date 1
sweetheart 1
inability 1
Salisbury 1
adviser 1
ideology 1
Nordic 1
##eu 1
Cubs 1
IP 1
Administrative 1
##nick 1
facto 1
liberation 1
Burnett 1
Javier 1
fashioned 1
Electoral 1
Turin 1
theft 1
unanimous 1
Per 1
1799 1
Clan 1
Hawkins 1
Teachers 1
##wes 1
Cameroon 1
Parkway 1
##gment 1
demolition 1
atoms 1
nucleus 1
##thi 1
recovering 1
##yte 1
##vice 1
lifts 1
Must 1
deposit 1
Hancock 1
Semi 1
darkened 1
Declaration 1
moan 1
muscular 1
Myers 1
attractions 1
sauce 1
simulation 1
##weed 1
Alps 1
barriers 1
##baum 1
Barack 1
galleries 1
Min 1
holders 1
Greenwich 1
donation 1
Everybody 1
Wolfgang 1
sandwich 1
Kendra 1
Collegiate 1
casino 1
Slavic 1
ensuing 1
Porto 1
##grapher 1
Jesuit 1
suppressed 1
tires 1
Ibrahim 1
protesters 1
Ibn 1
Amos 1
1796 1
phenomena 1
Hayden 1
Paraguay 1
Squad 1
Reilly 1
complement 1
aluminum 1
##eers 1
doubts 1
decay 1
demise 1
Practice 1
patience 1
fireplace 1
transparent 1
monarchy 1
##person 1
Rodney 1
mattered 1
rotating 1
Clifford 1
disposal 1
Standards 1
paced 1
##llie 1
arise 1
tallest 1
tug 1
documentation 1
node 1
freeway 1
Nikolai 1
##cite 1
clicked 1
imaging 1
Lorraine 1
Tactical 1
Different 1
Regular 1
Holding 1
165 1
Pilot 1
guarded 1
##polis 1
Classics 1
Mongolia 1
Brock 1
monarch 1
cellular 1
receptors 1
Mini 1
Chandler 1
financed 1
financially 1
Lives 1
erection 1
Fuller 1
unnamed 1
Kannada 1
cc 1
passive 1
plateau 1
##arity 1
freak 1
##rde 1
retrieved 1
transactions 1
##sus 1
23rd 1
swimmer 1
beef 1
fulfill 1
Arlington 1
offspring 1
reasoning 1
Rhys 1
saves 1
pseudonym 1
centimetres 1
shivered 1
shuddered 1
##ME 1
Feel 1
##otic 1
professors 1
Blackburn 1
##eng 1
##life 1
##haw 1
interred 1
lodge 1
fragile 1
Della 1
guardian 1
##bbled 1
catalog 1
clad 1
observer 1
tract 1
declaring 1
##headed 1
Lok 1
dean 1
Isabelle 1
1776 1
irrigation 1
spectacular 1
shuttle 1
mastering 1
##aro 1
Nathaniel 1
Retired 1
##lves 1
Brennan 1
##kha 1
dick 1
##dated 1
##hler 1
Rookie 1
leapt 1
televised 1
weekends 1
Baghdad 1
Yemen 1
##fo 1
factions 1
ion 1
Lab 1
mortality 1
passionate 1
Hammer 1
encompasses 1
confluence 1
demonstrations 1
Ki 1
derivative 1
soils 1
##unch 1
Ranch 1
Universities 1
conventions 1
outright 1
aiming 1
hierarchy 1
reside 1
illusion 1
graves 1
rituals 1
126 1
Antwerp 1
Dover 1
##ema 1
campuses 1
Hobart 1
lifelong 1
aliens 1
##vity 1
Memory 1
coordination 1
alphabet 1
##mina 1
Titans 1
pushes 1
Flanders 1
##holder 1
Normal 1
excellence 1
capped 1
profound 1
Taipei 1
portrayal 1
sparked 1
scratch 1
se 1
##eas 1
##hir 1
Mackenzie 1
##cation 1
Neo 1
Shin 1
##lined 1
magnificent 1
poster 1
batsman 1
##rgent 1
persuade 1
##ement 1
Icelandic 1
miserable 1
collegiate 1
Feature 1
geography 1
##mura 1
Comic 1
Circus 1
processor 1
barracks 1
Tale 1
##11 1
Bulls 1
##rap 1
strengthened 1
##bell 1
injection 1
miniature 1
broadly 1
Letter 1
fare 1
hostage 1
traders 1
##nium 1
##mere 1
Fortune 1
Rivera 1
Lu 1
triumph 1
Browns 1
Bangalore 1
cooperative 1
Basel 1
announcing 1
Sawyer 1
##him 1
##cco 1
##kara 1
darted 1
##AD 1
##nova 1
sucking 1
##position 1
perimeter 1
flung 1
Holdings 1
##NP 1
Basque 1
sketches 1
Augustine 1
Silk 1
Elijah 1
analyst 1
armour 1
riots 1
acquiring 1
ghosts 1
##ems 1
132 1
Pioneer 1
Colleges 1
Simone 1
Economy 1
Author 1
semester 1
Soldier 1
il 1
##unting 1
##bid 1
freaking 1
Vista 1
tumor 1
##bat 1
murderer 1
##eda 1
unreleased 1
##grove 1
##sser 1
##té 1
edit 1
statute 1
sovereign 1
##gawa 1
Killer 1
stares 1
Fury 1
comply 1
##lord 1
##nant 1
barrels 1
Andhra 1
Maple 1
generator 1
mascot 1
unusually 1
eds 1
##ante 1
##runner 1
rod 1
##tles 1
Historically 1
Jennings 1
dumped 1
Established 1
resemblance 1
##lium 1
##cise 1
##body 1
##voke 1
Lydia 1
##hou 1
##iring 1
nonetheless 1
1797 1
corrupt 1
patrons 1
physicist 1
sneak 1
Livingston 1
Citizens 1
Architects 1
Werner 1
trends 1
Melody 1
eighty 1
markings 1
brakes 1
##titled 1
oversaw 1
processed 1
mock 1
Midwest 1
intervals 1
##EF 1
stretches 1
werewolf 1
##MG 1
Pack 1
controller 1
##dition 1
Honours 1
cane 1
Griffith 1
vague 1
repertoire 1
Courtney 1
orgasm 1
Abdullah 1
dominance 1
occupies 1
Ya 1
introduces 1
Lester 1
instinct 1
collaborative 1
Indigenous 1
refusal 1
##rank 1
outlet 1
debts 1
spear 1
155 1
##keeping 1
##ulu 1
Catalan 1
##osh 1
tensions 1
##OT 1
bred 1
crude 1
Dunn 1
abdomen 1
accurately 1
##fu 1
##lough 1
accidents 1
Row 1
Audrey 1
rude 1
Getting 1
promotes 1
replies 1
Paolo 1
merge 1
##nock 1
trans 1
Evangelical 1
automated 1
Canon 1
##wear 1
##ggy 1
##gma 1
Broncos 1
foolish 1
icy 1
Voices 1
knives 1
Aside 1
dreamed 1
generals 1
molecule 1
AG 1
rejection 1
insufficient 1
##nagar 1
deposited 1
sacked 1
Landing 1
arches 1
helpful 1
devotion 1
intake 1
Flower 1
PGA 1
dragons 1
evolutionary 1
##mail 1
330 1
GM 1
tissues 1
##tree 1
arcade 1
composite 1
lid 1
Across 1
implications 1
lacks 1
theological 1
assessed 1
concentrations 1
Den 1
##mans 1
##ulous 1
Fu 1
homeland 1
##stream 1
Harriet 1
ecclesiastical 1
troop 1
ecological 1
winked 1
##xed 1
eighteenth 1
Casino 1
specializing 1
##sworth 1
unlocked 1
supreme 1
devastated 1
snatched 1
trauma 1
GDP 1
Nord 1
saddle 1
Wes 1
convenient 1
competes 1
##nu 1
##iss 1
Marian 1
subway 1
##rri 1
successes 1
umbrella 1
##far 1
##ually 1
Dundee 1
##cence 1
spark 1
##rix 1
##я 1
Quality 1
Geological 1
cockpit 1
rpm 1
Cam 1
Bucharest 1
riot 1
##PM 1
Leah 1
##dad 1
##pose 1
Ka 1
m³ 1
Bundesliga 1
Wolfe 1
grim 1
textile 1
quartet 1
expressing 1
fantastic 1
destroyers 1
eternal 1
picnic 1
##oro 1
contractor 1
1775 1
spanning 1
declining 1
##cating 1
Lowe 1
Sutherland 1
Emirates 1
downward 1
nineteen 1
violently 1
scout 1
viral 1
melting 1
enterprises 1
##cer 1
Crosby 1
Jubilee 1
antenna 1
urgent 1
Rory 1
##uin 1
##sure 1
wandering 1
##gler 1
##vent 1
Suzuki 1
Lifetime 1
Dirty 1
occupying 1
##quent 1
Disc 1
Guru 1
mound 1
Lennon 1
Humanities 1
listeners 1
Walton 1
uh 1
Braves 1
Bologna 1
##bis 1
##gra 1
Dwight 1
crawl 1
flags 1
memoir 1
Thorne 1
Archdiocese 1
dairy 1
##uz 1
##tery 1
roared 1
adjust 1
patches 1
inn 1
Knowing 1
##bbed 1
##zan 1
scan 1
Papa 1
precipitation 1
angrily 1
passages 1
postal 1
Phi 1
embraced 1
blacks 1
economist 1
triangular 1
Sen 1
shooter 1
punished 1
Millennium 1
Swimming 1
confessed 1
Aston 1
defeats 1
Era 1
cousins 1
Williamson 1
##rer 1
daytime 1
dumb 1
##rek 1
underway 1
specification 1
Buchanan 1
prayed 1
concealed 1
activation 1
##issa 1
canon 1
awesome 1
Starr 1
plural 1
summers 1
##fields 1
Slam 1
unnecessary 1
1791 1
resume 1
trilogy 1
compression 1
##rough 1
selective 1
dignity 1
Yan 1
##xton 1
immense 1
##yun 1
lone 1
seeded 1
hiatus 1
lightweight 1
summary 1
Yo 1
approve 1
Galway 1
rejoined 1
Elise 1
garbage 1
burns 1
speeches 1
129 1
Honduras 1
##liness 1
inventory 1
jersey 1
FK 1
assure 1
slumped 1
Lionel 1
Suite 1
##sbury 1
Lena 1
continuation 1
##AN 1
brightly 1
##nti 1
GT 1
Knowledge 1
##park 1
##lius 1
lethal 1
##tribution 1
##sions 1
Certificate 1
Mara 1
##lby 1
algorithms 1
Jade 1
blows 1
pirates 1
fleeing 1
wheelchair 1
Stein 1
sophomore 1
Alt 1
Territorial 1
diploma 1
snakes 1
##olic 1
##tham 1
Tiffany 1
Pius 1
flush 1
urging 1
Hanover 1
Reich 1
##olate 1
Unity 1
Pike 1
collectively 1
Theme 1
ballad 1
kindergarten 1
rocked 1
zoo 1
##page 1
whip 1
Rodríguez 1
strokes 1
checks 1
Becky 1
Stern 1
upstream 1
##uta 1
Silent 1
volunteered 1
Sigma 1
##ingen 1
##tract 1
##ede 1
Gujarat 1
screwed 1
entertaining 1
##action 1
##ryn 1
defenders 1
innocence 1
lesbian 1
que 1
Richie 1
nodes 1
Lie 1
juvenile 1
Jakarta 1
safer 1
confront 1
Bert 1
breakthrough 1
gospel 1
Cable 1
##zie 1
institutional 1
Archive 1
brake 1
liquor 1
feeds 1
##iate 1
chancellor 1
Encyclopedia 1
Animation 1
scanning 1
teens 1
##mother 1
Core 1
Rear 1
Wine 1
##flower 1
reactor 1
Ave 1
cardinal 1
sodium 1
strands 1
Olivier 1
crouched 1
Vaughan 1
Sammy 1
Image 1
scars 1
Emmanuel 1
flour 1
bias 1
nipple 1
revelation 1
##ucci 1
Denny 1
##ssy 1
Form 1
Runners 1
admits 1
Rama 1
violated 1
Burmese 1
feud 1
underwear 1
Mohamed 1
Named 1
swift 1
statewide 1
Door 1
Recently 1
comparing 1
Hundred 1
##idge 1
##nity 1
##rds 1
Rally 1
Reginald 1
Auburn 1
solving 1
waitress 1
Treasurer 1
##ilization 1
Halloween 1
Ministers 1
Boss 1
Shut 1
##listic 1
Rahman 1
demonstrating 1
##pies 1
Gaza 1
Yuri 1
installations 1
Math 1
schooling 1
##bble 1
Bronx 1
exiled 1
gasoline 1
133 1
bundle 1
humid 1
FCC 1
proportional 1
relate 1
VFL 1
##dez 1
continuity 1
##cene 1
syndicated 1
atmospheric 1
arrows 1
Wanderers 1
reinforcements 1
Willow 1
Lexington 1
Rotten 1
##yon 1
discovering 1
Serena 1
portable 1
##lysis 1
targeting 1
£1 1
Goodman 1
Steam 1
sensors 1
detachment 1
Malik 1
##erie 1
attitudes 1
Goes 1
Kendall 1
Read 1
Sleep 1
beans 1
Nikki 1
modification 1
Jeanne 1
knuckles 1
Eleven 1
##iously 1
Gross 1
Jaime 1
dioxide 1
moisture 1
Stones 1
UCI 1
displacement 1
Metacritic 1
Jury 1
lace 1
rendering 1
elephant 1
Sergei 1
##quire 1
GP 1
Abbott 1
##type 1
projection 1
Mouse 1
Bishops 1
whispering 1
Kathleen 1
Rams 1
##jar 1
whites 1
##oran 1
assess 1
dispatched 1
##hire 1
kin 1
##mir 1
Nursing 1
advocates 1
tremendous 1
sweater 1
assisting 1
##bil 1
Farmer 1
prominently 1
reddish 1
Hague 1
cyclone 1
##SD 1
Sage 1
Lawson 1
Sanctuary 1
discharged 1
retains 1
##ube 1
shotgun 1
wilderness 1
Reformed 1
similarity 1
Entry 1
Watts 1
Bahá 1
Quest 1
Looks 1
visions 1
Reservoir 1
Arabs 1
curls 1
Blu 1
dripping 1
accomplish 1
Verlag 1
drill 1
sensor 1
Dillon 1
physicians 1
smashed 1
##dir 1
painters 1
Renault 1
straw 1
fading 1
Directorate 1
lounge 1
commissions 1
Brain 1
##graph 1
neo 1
##urg 1
plug 1
coordinated 1
##houses 1
Critical 1
lamps 1
illustrator 1
Returning 1
erosion 1
Crow 1
##ciation 1
blessing 1
Thought 1
Wife 1
medalist 1
synthesizer 1
Pam 1
Thornton 1
Esther 1
HBO 1
fond 1
Associates 1
##raz 1
pirate 1
permits 1
Wide 1
tire 1
##PC 1
Ernie 1
Nassau 1
transferring 1
RFC 1
##ntly 1
um 1
spit 1
AS 1
##mps 1
Mining 1
polar 1
villa 1
anchored 1
##zzi 1
embarrassment 1
relates 1
##ă 1
Rupert 1
counterparts 1
131 1
Baxter 1
##18 1
Igor 1
recognizes 1
Clive 1
##hane 1
##eries 1
##ibly 1
occurrence 1
##scope 1
fin 1
colorful 1
Rapids 1
banker 1
tile 1
##rative 1
##dus 1
delays 1
destinations 1
##llis 1
Pond 1
Dane 1
grandparents 1
rewarded 1
socially 1
motorway 1
##hof 1
##lying 1
##human 1
modeled 1
Dayton 1
Forward 1
conscience 1
Sharma 1
whistle 1
Mayer 1
Sasha 1
##pical 1
circuits 1
Zhou 1
##ça 1
Latvian 1
finalists 1
predators 1
Lafayette 1
closes 1
obligations 1
Resolution 1
##vier 1
Trustees 1
reminiscent 1
##hos 1
Highlands 1
Protected 1
asylum 1
evacuation 1
##acy 1
Chevrolet 1
confession 1
Somalia 1
emergence 1
separating 1
##rica 1
alright 1
calcium 1
Laurent 1
Welfare 1
Leonardo 1
ashes 1
dental 1
Deal 1
minerals 1
##lump 1
##mount 1
accounted 1
staggered 1
slogan 1
photographic 1
builder 1
##imes 1
##raft 1
tragic 1
144 1
SEC 1
Hit 1
tailed 1
##ples 1
##rring 1
##rson 1
ethical 1
wrestlers 1
concludes 1
lunar 1
##ept 1
nitrogen 1
Aid 1
cyclist 1
quarterfinals 1
##ه 1
harvest 1
##hem 1
Pasha 1
IL 1
##mis 1
continually 1
##forth 1
Intel 1
bucket 1
##ended 1
witches 1
pretended 1
dresses 1
viewer 1
peculiar 1
lowering 1
volcano 1
Marilyn 1
Qualifier 1
clung 1
##sher 1
Cut 1
modules 1
Bowie 1
##lded 1
onset 1
transcription 1
residences 1
##pie 1
##itor 1
scrapped 1
##bic 1
Monaco 1
Mayo 1
eternity 1
Strike 1
uncovered 1
skeleton 1
##wicz 1
Isles 1
bug 1
Promoted 1
##rush 1
Mechanical 1
XII 1
##ivo 1
gripping 1
stubborn 1
velvet 1
TD 1
decommissioned 1
operas 1
spatial 1
unstable 1
Congressman 1
wasted 1
##aga 1
##ume 1
advertisements 1
##nya 1
obliged 1
Cannes 1
Conway 1
bricks 1
##gnant 1
##mity 1
##uise 1
jumps 1
Clear 1
##cine 1
##sche 1
chord 1
utter 1
Su 1
podium 1
spokesman 1
Royce 1
assassin 1
confirmation 1
licensing 1
liberty 1
##rata 1
Geographic 1
individually 1
detained 1
##ffe 1
Saturn 1
crushing 1
airplane 1
bushes 1
knights 1
##PD 1
Lilly 1
hurts 1
unexpectedly 1
Conservatives 1
pumping 1
Forty 1
candle 1
Pérez 1
peasants 1
supplement 1
Sundays 1
##ggs 1
##rries 1
risen 1
enthusiastic 1
corresponds 1
pending 1
##IF 1
Owens 1
floods 1
Painter 1
inflation 1
presumed 1
inscribed 1
Chamberlain 1
bizarre 1
1200 1
liability 1
reacted 1
tub 1
Legacy 1
##eds 1
##pted 1
shone 1
##litz 1
##NC 1
Tiny 1
genome 1
bays 1
Eduardo 1
robbery 1
stall 1
hatch 1
Depot 1
Variety 1
Flora 1
reprinted 1
trembled 1
outlined 1
CR 1
Theresa 1
spans 1
##plication 1
Jensen 1
##eering 1
posting 1
##rky 1
pays 1
##ost 1
Marcos 1
fortifications 1
inferior 1
##ential 1
Devi 1
despair 1
Talbot 1
##chus 1
updates 1
ego 1
Booth 1
Darius 1
tops 1
##lau 1
Scene 1
##DC 1
Harlem 1
Trey 1
Generally 1
candles 1
##α 1
Neville 1
Admiralty 1
##hong 1
iconic 1
victorious 1
1600 1
Rowan 1
abundance 1
miniseries 1
clutching 1
sanctioned 1
##words 1
obscure 1
##ision 1
##rle 1
##EM 1
disappearing 1
Resort 1
Obviously 1
##eb 1
exceeded 1
1870s 1
Adults 1
##cts 1
Cry 1
Kerr 1
ragged 1
selfish 1
##lson 1
circled 1
pillars 1
galaxy 1
##asco 1
##mental 1
rebuild 1
caution 1
Resistance 1
Start 1
bind 1
splitting 1
Baba 1
Hogan 1
ps 1
partnerships 1
slam 1
Peggy 1
courthouse 1
##OD 1
organizational 1
packages 1
Angie 1
##nds 1
possesses 1
##rp 1
Expressway 1
Gould 1
Terror 1
Him 1
Geoff 1
nobles 1
##ope 1
shark 1
##nh 1
identifies 1
##oor 1
testified 1
Playing 1
##ump 1
##isa 1
stool 1
Idol 1
##pice 1
##tana 1
Byrne 1
Gerry 1
grunted 1
26th 1
observing 1
habits 1
privilege 1
immortal 1
wagons 1
##thy 1
dot 1
Bring 1
##lian 1
##witz 1
newest 1
##uga 1
constraints 1
Screen 1
Issue 1
##RNA 1
##vil 1
reminder 1
##gles 1
addiction 1
piercing 1
stunning 1
var 1
##rita 1
Signal 1
accumulated 1
##wide 1
float 1
devastating 1
viable 1
cartoons 1
Uttar 1
flared 1
##encies 1
Theology 1
patents 1
##bahn 1
privileges 1
##ava 1
##CO 1
137 1
##oped 1
##NT 1
orchestral 1
medication 1
225 1
erect 1
Nadia 1
École 1
fried 1
Sales 1
scripts 1
##rease 1
airs 1
Cage 1
inadequate 1
structured 1
countless 1
Avengers 1
Kathy 1
disguise 1
mirrors 1
Investigation 1
reservation 1
##nson 1
Legends 1
humorous 1
Mona 1
decorations 1
attachment 1
Via 1
motivation 1
Browne 1
strangers 1
##ński 1
Shadows 1
Twins 1
##pressed 1
Alma 1
Nominated 1
##ott 1
Sergio 1
canopy 1
152 1
Semifinals 1
devised 1
##irk 1
upwards 1
Traffic 1
Goddess 1
Move 1
beetles 1
138 1
spat 1
##anne 1
holdings 1
##SP 1
tangled 1
Whilst 1
Fowler 1
anthem 1
##ING 1
##ogy 1
snarled 1
moonlight 1
songwriting 1
tolerance 1
Worlds 1
exams 1
##pia 1
notices 1
sensitivity 1
poetic 1
Stephens 1
Boone 1
insect 1
reconstructed 1
Fresh 1
27th 1
balloon 1
##ables 1
Brendan 1
mug 1
##gee 1
1780 1
apex 1
exports 1
slides 1
Lahore 1
hiring 1
Shell 1
electorate 1
sexuality 1
poker 1
nonprofit 1
##imate 1
cone 1
##uce 1
Okinawa 1
superintendent 1
##HC 1
referenced 1
turret 1
Sprint 1
Citizen 1
equilibrium 1
Stafford 1
curb 1
Driver 1
Valerie 1
##rona 1
aching 1
impacts 1
##bol 1
observers 1
Downs 1
Shri 1
##uth 1
airports 1
##uda 1
assignments 1
curtains 1
solitary 1
icon 1
patrols 1
substances 1
Jasper 1
mountainous 1
Published 1
ached 1
##ingly 1
announce 1
dove 1
damaging 1
##tism 1
Primera 1
Dexter 1
limiting 1
batch 1
##uli 1
undergoing 1
refugee 1
Ye 1
admiral 1
pavement 1
##WR 1
##reed 1
pipeline 1
desires 1
Ramsey 1
Sheila 1
thickness 1
Brotherhood 1
Tea 1
instituted 1
Belt 1
Break 1
plots 1
##ais 1
masculine 1
##where 1
Theo 1
##aged 1
##mined 1
Experience 1
scratched 1
Ethiopian 1
Teaching 1
##nov 1
Aiden 1
Abe 1
Samoa 1
conditioning 1
##mous 1
Otherwise 1
fade 1
Jenks 1
##encing 1
Nat 1
##lain 1
Anyone 1
##kis 1
smirk 1
Riding 1
##nny 1
Bavarian 1
blessed 1
potatoes 1
Hook 1
##wise 1
likewise 1
hardened 1
Merry 1
amid 1
persecution 1
##sten 1
Elections 1
Hoffman 1
Pitt 1
##vering 1
distraction 1
exploitation 1
infamous 1
quote 1
averaging 1
healed 1
Rhythm 1
Germanic 1
Mormon 1
illuminated 1
guides 1
##ische 1
interfere 1
##ilized 1
rector 1
perennial 1
##ival 1
Everett 1
courtesy 1
##nham 1
Kirby 1
Mk 1
##vic 1
Medieval 1
##tale 1
Luigi 1
limp 1
##diction 1
Alive 1
greeting 1
shove 1
##force 1
##fly 1
Jasmine 1
Bend 1
Capt 1
Suzanne 1
ditch 1
134 1
##nning 1
Host 1
fathers 1
rebuilding 1
Vocal 1
wires 1
##manship 1
tan 1
Factor 1
fixture 1
##LS 1
Māori 1
Plate 1
pyramid 1
##umble 1
slap 1
Schneider 1
yell 1
##ulture 1
##tional 1
Goodbye 1
sore 1
##pher 1
depressed 1
##dox 1
pitching 1
Find 1
Lotus 1
##wang 1
strand 1
Teen 1
debates 1
prevalent 1
##bilities 1
exposing 1
hears 1
billed 1
##rse 1
reorganized 1
compelled 1
disturbing 1
displaying 1
##tock 1
Clinical 1
emotionally 1
##iah 1
Derbyshire 1
grouped 1
##quel 1
Bahrain 1
Journalism 1
IN 1
persistent 1
blankets 1
Crane 1
camping 1
Direct 1
proving 1
Lola 1
##dding 1
Corporate 1
birthplace 1
##boats 1
##ender 1
Figure 1
dared 1
Assam 1
precursor 1
##nched 1
Tribe 1
Restoration 1
slate 1
Meyrick 1
hunted 1
stroking 1
Earlier 1
Kind 1
polls 1
appeals 1
monetary 1
##reate 1
Kira 1
Langdon 1
explores 1
GPS 1
extensions 1
squares 1
Results 1
draped 1
announcer 1
merit 1
##ennial 1
##tral 1
##roved 1
##cion 1
robots 1
supervisor 1
snorted 1
##group 1
Cannon 1
procession 1
monkey 1
freeze 1
sleeves 1
Nile 1
verdict 1
ropes 1
firearms 1
extraction 1
tensed 1
EC 1
Saunders 1
##tches 1
diamonds 1
Marriage 1
##amble 1
curling 1
Amazing 1
##haling 1
unrelated 1
##roads 1
Daughter 1
cum 1
discarded 1
kidney 1
cliffs 1
forested 1
Candy 1
##lap 1
authentic 1
tablet 1
notation 1
##nburg 1
Bulldogs 1
Callum 1
Meet 1
mouths 1
coated 1
##xe 1
Truman 1
combinations 1
##mation 1
Steelers 1
Fan 1
Than 1
paternal 1
##father 1
##uti 1
Rebellion 1
inviting 1
Fun 1
theatres 1
##ي 1
##rom 1
curator 1
##cision 1
networking 1
Oz 1
drought 1
##ssel 1
granting 1
MBA 1
Shelby 1
Elaine 1
jealousy 1
Kyoto 1
shores 1
signaling 1
tenants 1
debated 1
Intermediate 1
Wise 1
##hes 1
##pu 1
Havana 1
duke 1
vicious 1
exited 1
servers 1
Nonetheless 1
Reports 1
explode 1
##beth 1
Nationals 1
offerings 1
Oval 1
conferred 1
eponymous 1
folklore 1
##NR 1
Shire 1
planting 1
1783 1
Zeus 1
accelerated 1
Constable 1
consuming 1
troubles 1
McCartney 1
texture 1
bust 1
Immigration 1
excavated 1
hopefully 1
##cession 1
##coe 1
##name 1
##ully 1
lining 1
Einstein 1
Venezuelan 1
reissued 1
minorities 1
Beatrice 1
crystals 1
##nies 1
circus 1
lava 1
Beirut 1
extinction 1
##shu 1
Becker 1
##uke 1
issuing 1
Zurich 1
extract 1
##esta 1
##rred 1
regulate 1
progression 1
hut 1
alcoholic 1
plea 1
AB 1
Norse 1
Hubert 1
Mansfield 1
ashamed 1
##put 1
Bombardment 1
stripes 1
electrons 1
Denise 1
horrified 1
Nor 1
arranger 1
Hay 1
Koch 1
##ddling 1
##iner 1
Birthday 1
Josie 1
deliberate 1
explorer 1
##jiang 1
##signed 1
Arrow 1
wiping 1
satellites 1
baritone 1
mobility 1
##rals 1
Dorset 1
turbine 1
Coffee 1
185 1
##lder 1
Cara 1
Colts 1
pits 1
Crossing 1
coral 1
##birth 1
Tai 1
zombie 1
smoothly 1
##hp 1
mates 1
##ady 1
Marguerite 1
##tary 1
puzzled 1
tapes 1
overly 1
Sonic 1
Prayer 1
Thinking 1
##uf 1
IEEE 1
obligation 1
##cliffe 1
Basil 1
redesignated 1
##mmy 1
nostrils 1
Barney 1
XIII 1
##phones 1
vacated 1
unused 1
Berg 1
##roid 1
Towards 1
viola 1
136 1
Event 1
subdivided 1
rabbit 1
recruiting 1
##nery 1
Namibia 1
##16 1
##ilation 1
recruits 1
Famous 1
Francesca 1
##hari 1
Goa 1
##lat 1
Karachi 1
haul 1
biblical 1
##cible 1
MGM 1
##rta 1
horsepower 1
profitable 1
Grandma 1
importantly 1
Martinez 1
incoming 1
##kill 1
beneficial 1
nominal 1
praying 1
##isch 1
gable 1
nail 1
noises 1
##ttle 1
Polytechnic 1
rub 1
##cope 1
Thor 1
audition 1
erotic 1
##ending 1
##iano 1
Ultimately 1
armoured 1
##mum 1
presently 1
pedestrian 1
##tled 1
Ipswich 1
offence 1
##ffin 1
##borne 1
Flemish 1
##hman 1
echo 1
##cting 1
auditorium 1
gentlemen 1
winged 1
##tched 1
Nicaragua 1
Unknown 1
prosperity 1
exhaust 1
pie 1
Peruvian 1
compartment 1
heights 1
disabilities 1
##pole 1
Harding 1
Humphrey 1
postponed 1
moths 1
Mathematical 1
Mets 1
posters 1
axe 1
##nett 1
Nights 1
Typically 1
chuckle 1
councillors 1
alternating 1
141 1
Norris 1
##ately 1
##etus 1
deficit 1
dreaming 1
cooler 1
oppose 1
Beethoven 1
##esis 1
Marquis 1
flashlight 1
headache 1
investor 1
responding 1
appointments 1
##shore 1
Elias 1
ideals 1
shades 1
torch 1
lingering 1
##real 1
pier 1
fertile 1
Diploma 1
currents 1
Snake 1
##horse 1
##15 1
Briggs 1
##ota 1
##hima 1
##romatic 1
Coastal 1
Kuala 1
ankles 1
Rae 1
slice 1
Hilton 1
locking 1
Approximately 1
Workshop 1
Niagara 1
strangely 1
##scence 1
functionality 1
advertisement 1
Rapid 1
Anders 1
ho 1
Soviets 1
packing 1
basal 1
Sunderland 1
Permanent 1
##fting 1
rack 1
tying 1
Lowell 1
##ncing 1
Wizard 1
mighty 1
tertiary 1
pencil 1
dismissal 1
torso 1
grasped 1
##yev 1
Sand 1
gossip 1
##nae 1
Beer 1
implementing 1
##19 1
##riya 1
Fork 1
Bee 1
##eria 1
Win 1
##cid 1
sailor 1
pressures 1
##oping 1
speculated 1
Freddie 1
originating 1
##DF 1
##SR 1
##outh 1
28th 1
melt 1
Brenda 1
lump 1
Burlington 1
USC 1
marginal 1
##bine 1
Dogs 1
swamp 1
cu 1
Ex 1
uranium 1
metro 1
spill 1
Pietro 1
seize 1
Chorus 1
partition 1
##dock 1
##media 1
engineered 1
##oria 1
conclusions 1
subdivision 1
##uid 1
Illustrated 1
Leading 1
##hora 1
Berkshire 1
definite 1
##books 1
##cin 1
##suke 1
noun 1
winced 1
Doris 1
dissertation 1
Wilderness 1
##quest 1
braced 1
arbitrary 1
kidnapping 1
Kurdish 1
##but 1
clearance 1
excavations 1
wanna 1
Allmusic 1
insult 1
presided 1
yacht 1
##SM 1
Honour 1
Tin 1
attracting 1
explosives 1
Gore 1
Bride 1
##ience 1
Packers 1
Devils 1
Observer 1
##course 1
Loser 1
##erry 1
##hardt 1
##mble 1
Cyrillic 1
undefeated 1
##stra 1
subordinate 1
##ame 1
Wigan 1
compulsory 1
Pauline 1
Cruise 1
Opposition 1
##ods 1
Period 1
dispersed 1
expose 1
##60 1
##has 1
Certain 1
Clerk 1
Wolves 1
##hibition 1
apparatus 1
allegiance 1
orbital 1
justified 1
thanked 1
##ević 1
Biblical 1
Carolyn 1
Graves 1
##tton 1
Hercules 1
backgrounds 1
replica 1
1788 1
aquatic 1
Mega 1
Stirling 1
obstacles 1
filing 1
Founder 1
vowels 1
Deborah 1
Rotterdam 1
surpassed 1
Belarusian 1
##ologists 1
Zambia 1
Ren 1
Olga 1
Alpine 1
bi 1
councillor 1
Oaks 1
Animals 1
eliminating 1
digit 1
Managing 1
##GE 1
laundry 1
##rdo 1
presses 1
slamming 1
Tudor 1
thief 1
posterior 1
##bas 1
Rodgers 1
smells 1
##ining 1
Hole 1
SUV 1
trombone 1
numbering 1
representations 1
Domingo 1
Paralympics 1
cartridge 1
##rash 1
Combined 1
shelves 1
Kraków 1
revision 1
##frame 1
Sánchez 1
##tracted 1
##bler 1
Alain 1
townships 1
sic 1
trousers 1
Gibbs 1
anterior 1
symmetry 1
vaguely 1
Castile 1
IRA 1
resembling 1
Penguin 1
##ulent 1
infections 1
##stant 1
raped 1
##pressive 1
worrying 1
brains 1
bending 1
JR 1
Evidence 1
Venetian 1
complexes 1
Jonah 1
850 1
exported 1
Ambrose 1
Gap 1
philanthropist 1
##atus 1
Marxist 1
weighing 1
##KO 1
##nath 1
Soldiers 1
chiefs 1
reject 1
repeating 1
shaky 1
Zürich 1
preserving 1
##xin 1
cigarettes 1
##break 1
mortar 1
##fin 1
Already 1
reproduction 1
socks 1
Waiting 1
amazed 1
##aca 1
dash 1
##path 1
Airborne 1
##harf 1
##get 1
descending 1
OBE 1
Sant 1
Tess 1
Lucius 1
enjoys 1
##ttered 1
##ivation 1
##ete 1
Leinster 1
Phillies 1
execute 1
geological 1
unfinished 1
Courts 1
SP 1
Beaver 1
Duck 1
motions 1
Platinum 1
friction 1
##aud 1
##bet 1
Parts 1
Stade 1
entirety 1
sprang 1
Smithsonian 1
coffin 1
prolonged 1
Borneo 1
##vise 1
unanimously 1
##uchi 1
Cars 1
Cassandra 1
Australians 1
##CT 1
##rgen 1
Louisa 1
spur 1
Constance 1
##lities 1
Patent 1
racism 1
tempo 1
##ssion 1
##chard 1
##nology 1
##claim 1
Million 1
Nichols 1
##dah 1
Numerous 1
ing 1
Pure 1
plantations 1
donor 1
##EP 1
##rip 1
convenience 1
##plate 1
dots 1
indirect 1
##written 1
Dong 1
failures 1
adapt 1
wizard 1
unfortunately 1
##gion 1
practitioners 1
economically 1
Enrique 1
unchanged 1
kingdoms 1
refined 1
definitions 1
lazy 1
worries 1
railing 1
##nay 1
Kaiser 1
##lug 1
cracks 1
sells 1
ninety 1
##WC 1
Directed 1
denotes 1
developmental 1
papal 1
unfortunate 1
disappointing 1
sixteenth 1
Jen 1
##urier 1
NWA 1
drifting 1
Horror 1
##chemical 1
behaviors 1
bury 1
surfaced 1
foreigners 1
slick 1
AND 1
##rene 1
##ditions 1
##teral 1
scrap 1
kicks 1
comprise 1
buddy 1
##anda 1
Mental 1
##ype 1
Dom 1
wines 1
Limerick 1
Luca 1
Rand 1
##won 1
Tomatoes 1
homage 1
geometric 1
##nted 1
telescope 1
Shelley 1
poles 1
##fan 1
shareholders 1
Autonomous 1
cope 1
intensified 1
Genoa 1
Reformation 1
grazing 1
##tern 1
Zhao 1
provisional 1
##bies 1
Con 1
##riel 1
Cynthia 1
Raleigh 1
vivid 1
threaten 1
Length 1
subscription 1
roses 1
Müller 1
##isms 1
robin 1
##tial 1
Laos 1
Stanton 1
nationalism 1
##clave 1
##ND 1
##17 1
##zz 1
staging 1
Busch 1
Cindy 1
relieve 1
##spective 1
packs 1
neglected 1
CBE 1
alpine 1
Evolution 1
uneasy 1
coastline 1
Destiny 1
Barber 1
Julio 1
##tted 1
informs 1
unprecedented 1
Pavilion 1
##bei 1
##ference 1
betrayal 1
awaiting 1
leaked 1
V8 1
puppet 1
adverse 1
Bourne 1
Sunset 1
collectors 1
##glass 1
##sque 1
copied 1
Demon 1
conceded 1
resembled 1
Rafe 1
Levy 1
prosecutor 1
##ject 1
flora 1
manned 1
deaf 1
Mosque 1
reminds 1
Lizzie 1
Products 1
Funny 1
cassette 1
congress 1
##rong 1
Rover 1
tossing 1
prompting 1
chooses 1
Satellite 1
cautiously 1
Reese 1
##UT 1
Huang 1
Gloucestershire 1
giggled 1
Kitty 1
##å 1
Pleasant 1
Aye 1
##ond 1
judging 1
1860s 1
intentionally 1
Hurling 1
aggression 1
##xy 1
transfers 1
employing 1
##fies 1
##oda 1
Archibald 1
Blessed 1
Ski 1
flavor 1
Rosie 1
##burgh 1
sunset 1
Scholarship 1
WC 1
surround 1
ranged 1
##jay 1
Degree 1
Houses 1
squeezing 1
limb 1
premium 1
Leningrad 1
steals 1
##inated 1
##ssie 1
madness 1
vacancy 1
hydraulic 1
Northampton 1
##prise 1
Marks 1
Boxing 1
##fying 1
academics 1
##lich 1
##TY 1
CDs 1
##lma 1
hardcore 1
monitors 1
paperback 1
cables 1
Dimitri 1
upside 1
advent 1
Ra 1
##clusive 1
Aug 1
Christchurch 1
objected 1
stalked 1
Simple 1
colonists 1
##laid 1
CT 1
discusses 1
fellowship 1
Carnival 1
cares 1
Miracle 1
pastoral 1
rooted 1
shortage 1
borne 1
Quentin 1
meditation 1
tapping 1
Novel 1
##ades 1
Alicia 1
Burn 1
famed 1
residency 1
Fernández 1
Johannesburg 1
Zhu 1
offended 1
Mao 1
outward 1
##inas 1
XV 1
denial 1
noticing 1
##ís 1
quarry 1
##hound 1
##amo 1
Bernie 1
Bentley 1
Joanna 1
mortgage 1
##rdi 1
##sumption 1
lenses 1
extracted 1
depiction 1
##RE 1
Networks 1
Broad 1
Revenue 1
flickered 1
virgin 1
flanked 1
##о 1
Enterprises 1
probable 1
Liberals 1
Falcons 1
drowning 1
phrases 1
loads 1
assumes 1
inhaled 1
awe 1
logs 1
slightest 1
spiders 1
waterfall 1
##pate 1
rocking 1
shrub 1
##uil 1
roofs 1
##gard 1
prehistoric 1
wary 1
##rak 1
TO 1
clips 1
sustain 1
treason 1
microphone 1
voter 1
Lamb 1
psychologist 1
wrinkled 1
##ères 1
mating 1
Carrier 1
340 1
##lbert 1
sensing 1
##rino 1
destiny 1
distract 1
weaker 1
UC 1
Nearly 1
neurons 1
spends 1
Apache 1
##rem 1
genuinely 1
wells 1
##lanted 1
stereo 1
##girl 1
Lois 1
Leaving 1
consul 1
fungi 1
Pier 1
Cyril 1
80s 1
Jungle 1
##tani 1
illustration 1
Split 1
##hana 1
Abigail 1
##patrick 1
1787 1
diminished 1
Selected 1
packaging 1
##EG 1
Martínez 1
communal 1
Manufacturing 1
sentiment 1
143 1
unwilling 1
praising 1
Citation 1
pills 1
##iti 1
##rax 1
muffled 1
neatly 1
workforce 1
Yep 1
leisure 1
Tu 1
##nding 1
Wakefield 1
ancestral 1
##uki 1
destructive 1
seas 1
Passion 1
showcase 1
##ceptive 1
heroic 1
142 1
exhaustion 1
Customs 1
##aker 1
Scholar 1
sliced 1
##inian 1
Direction 1
##OW 1
Swansea 1
aluminium 1
##eep 1
ceramic 1
McCoy 1
Career 1
Sector 1
chartered 1
Damascus 1
pictured 1
Interest 1
stiffened 1
Plateau 1
obsolete 1
##tant 1
irritated 1
inappropriate 1
overs 1
##nko 1
bail 1
Talent 1
Sur 1
ours 1
##nah 1
barred 1
legged 1
sociology 1
Bud 1
dictionary 1
##luk 1
Cover 1
obey 1
##oring 1
annoying 1
##dong 1
apprentice 1
Cyrus 1
Role 1
##GP 1
##uns 1
##bag 1
Greenland 1
Porsche 1
Rocket 1
##32 1
organism 1
##ntary 1
reliability 1
##vocation 1
##й 1
Found 1
##hine 1
motors 1
promoter 1
unfair 1
##oms 1
##note 1
distribute 1
eminent 1
rails 1
appealing 1
chiefly 1
meaningful 1
Stephan 1
##rehension 1
Consumer 1
psychiatric 1
bowler 1
saints 1
##iful 1
##н 1
1777 1
Pol 1
Dorian 1
Townsend 1
hastily 1
##jima 1
Quincy 1
Sol 1
fascinated 1
Scarlet 1
alto 1
Avon 1
certainty 1
##eding 1
Keys 1
##chu 1
Chu 1
##VE 1
ions 1
tributaries 1
Thanksgiving 1
##fusion 1
astronomer 1
oxide 1
pavilion 1
Supply 1
Casa 1
Bollywood 1
sadly 1
mutations 1
Keller 1
##wave 1
nationals 1
##rgo 1
##ym 1
predict 1
Catholicism 1
Vega 1
##eration 1
##ums 1
Mali 1
tuned 1
Lankan 1
Plans 1
radial 1
Bosnian 1
Lexi 1
##14 1
##ü 1
sacks 1
unpleasant 1
Empty 1
handles 1
##taking 1
Bon 1
switches 1
intently 1
tuition 1
antique 1
##jk 1
fraternity 1
notebook 1
Desmond 1
##sei 1
prostitution 1
##how 1
deed 1
##OP 1
501 1
Somewhere 1
Rocks 1
##mons 1
campaigned 1
frigate 1
gases 1
suppress 1
##hang 1
Merlin 1
Northumberland 1
dominate 1
expeditions 1
thunder 1
##ups 1
##rical 1
Cap 1
thorough 1
Ariel 1
##kind 1
renewable 1
constructing 1
pacing 1
terrorists 1
Bowen 1
documentaries 1
westward 1
##lass 1
##nage 1
Merchant 1
##ued 1
Beaumont 1
Din 1
##hian 1
Danube 1
peasant 1
Garrison 1
encourages 1
gratitude 1
reminding 1
stormed 1
##ouse 1
pronunciation 1
##ailed 1
Weekend 1
suggestions 1
##ffing 1
##DI 1
Active 1
Colombo 1
##logists 1
Merrill 1
##cens 1
Archaeological 1
Medina 1
captained 1
##yk 1
duel 1
cracking 1
Wilkinson 1
Guam 1
pickup 1
renovations 1
##ël 1
##izer 1
delighted 1
##iri 1
Weaver 1
##ctional 1
tens 1
##hab 1
Clint 1
##usion 1
##each 1
petals 1
Farrell 1
##sable 1
caste 1
##will 1
Ezra 1
##qi 1
##standing 1
thrilled 1
ambush 1
exhaled 1
##SU 1
Resource 1
blur 1
forearm 1
specifications 1
contingent 1
cafe 1
##iology 1
Antony 1
fundraising 1
grape 1
##rgy 1
turnout 1
##udi 1
Clifton 1
laboratories 1
Irvine 1
##opus 1
##lid 1
Monthly 1
Bihar 1
statutory 1
Roses 1
Emil 1
##rig 1
lumber 1
optimal 1
##DR 1
pumps 1
plaster 1
Mozambique 1
##aco 1
nightclub 1
propelled 1
##hun 1
ked 1
surplus 1
wax 1
##urai 1
pioneered 1
Sunny 1
imprint 1
Forget 1
Eliot 1
approximate 1
patronage 1
##bek 1
##ely 1
##mbe 1
Partnership 1
curl 1
snapping 1
29th 1
Patriarch 1
##jord 1
seldom 1
##ature 1
astronomy 1
Bremen 1
XIV 1
airborne 1
205 1
1778 1
recognizing 1
stranded 1
arrogant 1
bombardment 1
destined 1
ensured 1
146 1
robust 1
Davenport 1
Interactive 1
Offensive 1
Fi 1
prevents 1
probe 1
propeller 1
sorrow 1
Blade 1
mounting 1
automotive 1
##dged 1
wallet 1
201 1
lashes 1
Forrest 1
##ift 1
Cell 1
Younger 1
shouts 1
##cki 1
folds 1
##chet 1
Epic 1
yields 1
homosexual 1
tunes 1
##minate 1
##text 1
Manny 1
chemist 1
hindwings 1
##urn 1
pilgrimage 1
##sfield 1
##riff 1
MLS 1
##rive 1
Huntington 1
translates 1
Path 1
slim 1
##ndra 1
##oz 1
climax 1
commuter 1
desperation 1
##reet 1
denying 1
##rious 1
daring 1
seminary 1
polo 1
##clamation 1
Teatro 1
Torah 1
Cats 1
identities 1
Poles 1
photographed 1
fiery 1
popularly 1
##cross 1
winters 1
Hesse 1
##vio 1
Nurse 1
Senegal 1
Salon 1
prescribed 1
justify 1
##gues 1
##и 1
##orted 1
HQ 1
##hiro 1
evaluated 1
momentarily 1
##unts 1
Debbie 1
##licity 1
##TP 1
Mighty 1
Rabbit 1
##chal 1
Events 1
Savoy 1
##ht 1
Brandenburg 1
Bordeaux 1
##laus 1
Release 1
##IE 1
##kowski 1
1900s 1
SK 1
Strauss 1
##aly 1
Sonia 1
Updated 1
synagogue 1
McKay 1
flattened 1
370 1
clutch 1
contests 1
toast 1
evaluate 1
pope 1
heirs 1
jam 1
tutor 1
reverted 1
##ading 1
nonsense 1
hesitate 1
Lars 1
Ceylon 1
Laurie 1
##guchi 1
accordingly 1
customary 1
148 1
Ethics 1
Multiple 1
instincts 1
IGN 1
##ä 1
bullshit 1
##hit 1
##par 1
desirable 1
##ducing 1
##yam 1
alias 1
ashore 1
licenses 1
##lification 1
misery 1
147 1
Cola 1
assassinated 1
fiercely 1
##aft 1
las 1
goat 1
substrate 1
lords 1
Cass 1
Bridges 1
ICC 1
lasts 1
sights 1
reproductive 1
##asi 1
Ivory 1
Clean 1
fixing 1
##lace 1
seeming 1
aide 1
1850s 1
harassment 1
##FF 1
##LE 1
reasonably 1
##coat 1
##cano 1
NYC 1
1784 1
Fifty 1
immunity 1
Canadians 1
Cheng 1
comforting 1
meanwhile 1
##tera 1
##blin 1
breeds 1
glowed 1
##vour 1
Aden 1
##verted 1
##aded 1
##oral 1
neat 1
enforced 1
poisoning 1
##ews 1
##hone 1
enforce 1
predecessors 1
survivor 1
Month 1
unfamiliar 1
pierced 1
waived 1
dump 1
responds 1
Mai 1
Declan 1
angular 1
Doesn 1
interpretations 1
##yar 1
invest 1
Dhaka 1
policeman 1
Congregation 1
Eighth 1
painfully 1
##este 1
##vior 1
Württemberg 1
##cles 1
blockade 1
encouragement 1
##fie 1
Caucasus 1
Malone 1
Universidad 1
utilize 1
Nissan 1
inherent 1
151 1
agreeing 1
syllable 1
determines 1
Protocol 1
conclude 1
##gara 1
40th 1
Xu 1
Taiwanese 1
##ather 1
boiler 1
printer 1
Lacey 1
titular 1
Klaus 1
Fallon 1
Wembley 1
fox 1
Chandra 1
Governorate 1
obsessed 1
##Ps 1
micro 1
##25 1
Cooke 1
gymnasium 1
weaving 1
Shall 1
Hussein 1
glaring 1
softball 1
Reader 1
Dominion 1
Trouble 1
varsity 1
Cooperation 1
Chaos 1
Kang 1
Kramer 1
Eisenhower 1
proves 1
Connie 1
consortium 1
governors 1
Bethany 1
opener 1
Normally 1
Willy 1
linebacker 1
Regent 1
Used 1
AllMusic 1
Twilight 1
##shaw 1
Companion 1
Tribunal 1
simpler 1
##gam 1
Experimental 1
Slovenian 1
cellar 1
deadline 1
trout 1
Hubbard 1
ads 1
idol 1
##hetto 1
Granada 1
clues 1
salmon 1
1700 1
Omega 1
Caldwell 1
softened 1
Bills 1
Honolulu 1
##gn 1
Terrace 1
suitcase 1
##IL 1
frantic 1
##oons 1
Abbot 1
Sitting 1
Fortress 1
Riders 1
sickness 1
enzymes 1
trustee 1
Bern 1
forged 1
##13 1
##ruff 1
##rl 1
##versity 1
inspector 1
champagne 1
##held 1
##FI 1
hereditary 1
Taliban 1
handball 1
##wine 1
Sioux 1
##dicated 1
honoured 1
139 1
##tude 1
Skye 1
meanings 1
##rkin 1
cardiac 1
analyzed 1
vegetable 1
##FS 1
Royals 1
dial 1
freelance 1
##fest 1
partisan 1
petroleum 1
ridden 1
Lincolnshire 1
panting 1
##comb 1
presidents 1
Haley 1
##chs 1
contributes 1
Jew 1
discoveries 1
panicked 1
Woody 1
eyelids 1
Fate 1
Tulsa 1
mg 1
whiskey 1
zombies 1
Wii 1
##udge 1
investigators 1
##bull 1
centred 1
##screen 1
Bone 1
Lana 1
##oise 1
forts 1
##ske 1
Conan 1
Lyons 1
##writing 1
SH 1
##ride 1
rhythmic 1
154 1
##llah 1
pioneers 1
##bright 1
captivity 1
Sanchez 1
Oman 1
##mith 1
Flint 1
Platform 1
##ioned 1
emission 1
packet 1
Persia 1
##formed 1
takeover 1
tempted 1
Vance 1
Few 1
Toni 1
receptions 1
##ن 1
exchanges 1
Camille 1
whale 1
Chronicles 1
##rent 1
##ushing 1
##rift 1
Alto 1
Genus 1
##asing 1
onward 1
foremost 1
longing 1
Rockefeller 1
containers 1
##cribe 1
intercepted 1
##olt 1
pleading 1
Bye 1
bee 1
##umbling 1
153 1
undertake 1
Izzy 1
cheaper 1
Ultra 1
validity 1
##pse 1
Sa 1
hovering 1
##pert 1
vintage 1
engraved 1
##rise 1
farmland 1
##ever 1
##ifier 1
Atlantis 1
propose 1
Catalonia 1
plunged 1
##edly 1
demonstrates 1
gig 1
##cover 1
156 1
Osborne 1
cowboy 1
herd 1
investigator 1
loops 1
Burning 1
rests 1
Instrumental 1
embarrassing 1
focal 1
install 1
readings 1
swirling 1
Chatham 1
parameter 1
##zin 1
##holders 1
Mandarin 1
Moody 1
converting 1
Escape 1
warnings 1
##chester 1
incarnation 1
##ophone 1
adopting 1
##lins 1
Cromwell 1
##laws 1
Axis 1
Verde 1
Kappa 1
Schwartz 1
Serbs 1
caliber 1
Wanna 1
Chung 1
##ality 1
nursery 1
principally 1
Bulletin 1
likelihood 1
logging 1
##erty 1
Boyle 1
supportive 1
twitched 1
##usive 1
builds 1
Marseille 1
omitted 1
motif 1
Lands 1
##lusion 1
##ssed 1
Barrow 1
Airfield 1
Harmony 1
WWF 1
endured 1
merging 1
convey 1
branding 1
examinations 1
167 1
Italians 1
##dh 1
dude 1
1781 1
##teau 1
crawling 1
thoughtful 1
clasped 1
concluding 1
brewery 1
Moldova 1
Wan 1
Towers 1
Heidelberg 1
202 1
##ict 1
Lagos 1
imposing 1
##eval 1
##serve 1
Bacon 1
frowning 1
thirteenth 1
conception 1
calculations 1
##ович 1
##mile 1
##ivated 1
mutation 1
strap 1
##lund 1
demographic 1
nude 1
perfection 1
stocks 1
##renched 1
##dit 1
Alejandro 1
bites 1
fragment 1
##hack 1
##rchy 1
GB 1
Surgery 1
Berger 1
punish 1
boiling 1
consume 1
Elle 1
Sid 1
Dome 1
relies 1
Crescent 1
treasurer 1
Bloody 1
1758 1
upheld 1
Guess 1
Restaurant 1
signatures 1
font 1
millennium 1
mural 1
stakes 1
Abel 1
hailed 1
insists 1
Alumni 1
Breton 1
##jun 1
digits 1
##FM 1
##thal 1
Talking 1
motive 1
reigning 1
babe 1
masks 1
##ø 1
Shaun 1
potato 1
sour 1
whitish 1
Somali 1
##derman 1
##rab 1
##wy 1
chancel 1
telecommunications 1
Noise 1
messenger 1
tidal 1
grinding 1
##ogenic 1
Rebel 1
constituent 1
peripheral 1
recruitment 1
##ograph 1
##tler 1
pumped 1
Ravi 1
poked 1
##gley 1
Olive 1
diabetes 1
discs 1
liking 1
sting 1
fits 1
stir 1
Mari 1
Sega 1
creativity 1
weights 1
Macau 1
mandated 1
Bohemia 1
disastrous 1
Katrina 1
Baku 1
Rajasthan 1
waiter 1
##psis 1
Siberia 1
verbs 1
##truction 1
patented 1
1782 1
##ndon 1
Relegated 1
Hunters 1
Greenwood 1
Shock 1
accusing 1
skipped 1
Sessions 1
markers 1
subset 1
monumental 1
Viola 1
comparative 1
Alright 1
Barbados 1
setup 1
Session 1
standardized 1
##ík 1
##sket 1
appoint 1
AFB 1
Nationalist 1
##WS 1
Troop 1
leaped 1
Treasure 1
goodness 1
weary 1
originates 1
100th 1
compassion 1
expresses 1
recommend 1
168 1
composing 1
seventeenth 1
Tex 1
Atlético 1
bald 1
Finding 1
Presidency 1
Sharks 1
favoured 1
inactive 1
##lter 1
suffix 1
princes 1
brighter 1
##ctus 1
classics 1
defendants 1
culminated 1
terribly 1
Strategy 1
evenings 1
##ção 1
##iver 1
##urance 1
absorb 1
##rner 1
Territories 1
RBI 1
soothing 1
Martín 1
concurrently 1
##tr 1
Nicholson 1
fibers 1
swam 1
##oney 1
Allie 1
Algerian 1
Dartmouth 1
Mafia 1
##bos 1
##tts 1
Councillor 1
vocabulary 1
##bla 1
##lé 1
intending 1
##dler 1
Guerrero 1
sunshine 1
pedal 1
##TO 1
administrators 1
periodic 1
scholarships 1
Loop 1
Madeline 1
exaggerated 1
##ressed 1
Regan 1
##cellular 1
Explorer 1
##oids 1
Alexandre 1
vows 1
Reporter 1
Unable 1
Average 1
absorption 1
##bedience 1
Fortunately 1
Auxiliary 1
Grandpa 1
##HP 1
##ovo 1
potent 1
temporal 1
adrenaline 1
##udo 1
confusing 1
guiding 1
Dry 1
qualifications 1
joking 1
wherein 1
heavyweight 1
##ices 1
nightmares 1
pharmaceutical 1
Commanding 1
##aled 1
##ove 1
Gregor 1
##UP 1
censorship 1
degradation 1
glorious 1
Austro 1
##rench 1
380 1
Miriam 1
sped 1
##orous 1
offset 1
##KA 1
fined 1
specialists 1
Pune 1
João 1
##dina 1
propped 1
fungus 1
##ς 1
frantically 1
Gabrielle 1
Hare 1
committing 1
##plied 1
Ask 1
Wilmington 1
stunt 1
numb 1
warmer 1
preacher 1
earnings 1
##lating 1
integer 1
##ija 1
federation 1
homosexuality 1
##cademia 1
epidemic 1
grumbled 1
shoving 1
Milk 1
Satan 1
Tobias 1
innovations 1
##dington 1
geology 1
memoirs 1
##IR 1
spared 1
culminating 1
Daphne 1
Focus 1
severed 1
stricken 1
Paige 1
Mans 1
flats 1
Russo 1
communes 1
litigation 1
strengthening 1
##powered 1
Staffordshire 1
Wiltshire 1
Painting 1
Watkins 1
##د 1
specializes 1
Select 1
##rane 1
##aver 1
Fulton 1
playable 1
##VN 1
openings 1
sampling 1
##coon 1
##21 1
Allah 1
travelers 1
allocation 1
##arily 1
Loch 1
##hm 1
commentators 1
fulfilled 1
##troke 1
Emeritus 1
Vanderbilt 1
Vijay 1
pledged 1
##tative 1
diagram 1
drilling 1
##MD 1
##plain 1
Edison 1
productivity 1
31st 1
##rying 1
##ption 1
##gano 1
##oration 1
##bara 1
posture 1
bothering 1
platoon 1
politely 1
##inating 1
redevelopment 1
Job 1
##vale 1
stark 1
incorrect 1
Mansion 1
renewal 1
threatens 1
Bahamas 1
fridge 1
##tata 1
Uzbekistan 1
##edia 1
Sainte 1
##mio 1
gaps 1
neural 1
##storm 1
overturned 1
Preservation 1
shields 1
##ngo 1
##physics 1
ah 1
gradual 1
killings 1
##anza 1
consultation 1
premiership 1
Felipe 1
coincidence 1
##ène 1
##any 1
Handbook 1
##loaded 1
Edit 1
Guns 1
arguably 1
##ş 1
compressed 1
depict 1
seller 1
##qui 1
Kilkenny 1
##kling 1
Olympia 1
librarian 1
##acles 1
dramas 1
JP 1
Kit 1
Maj 1
##lists 1
proprietary 1
##nged 1
##ettes 1
##tok 1
exceeding 1
Lock 1
induction 1
numerical 1
##vist 1
Straight 1
foyer 1
imaginary 1
##pop 1
violinist 1
Carla 1
bouncing 1
##ashi 1
abolition 1
##uction 1
restoring 1
scenic 1
##č 1
Doom 1
overthrow 1
para 1
##vid 1
##ughty 1
Concord 1
HC 1
cocaine 1
deputies 1
##aul 1
visibility 1
##wart 1
Kapoor 1
Hutchinson 1
##agan 1
flashes 1
kn 1
decreasing 1
##ronology 1
quotes 1
vain 1
satisfying 1
##iam 1
##linger 1
310 1
Hanson 1
fauna 1
##zawa 1
##rrel 1
Trenton 1
##VB 1
Employment 1
vocational 1
Exactly 1
bartender 1
butterflies 1
tow 1
##chers 1
##ocks 1
pigs 1
merchandise 1
##game 1
##pine 1
Shea 1
##gration 1
Connell 1
Josephine 1
monopoly 1
##dled 1
Cobb 1
warships 1
cancellation 1
someday 1
stove 1
##Cs 1
candidacy 1
superhero 1
unrest 1
Toulouse 1
admiration 1
undergone 1
whirled 1
Reconnaissance 1
costly 1
##ships 1
290 1
Cafe 1
amber 1
Tory 1
##mpt 1
definitive 1
##dress 1
proposes 1
redesigned 1
acceleration 1
##asa 1
##raphy 1
Presley 1
exits 1
Languages 1
##cel 1
Mode 1
spokesperson 1
##tius 1
Ban 1
forthcoming 1
grounded 1
ACC 1
compelling 1
logistics 1
retailers 1
abused 1
##gating 1
soda 1
##yland 1
##lution 1
Landmark 1
XVI 1
blush 1
##tem 1
hurling 1
dread 1
Tobago 1
Foley 1
##uad 1
scenarios 1
##mentation 1
##rks 1
Score 1
fatigue 1
hairy 1
correspond 1
##iard 1
defences 1
confiscated 1
##rudence 1
1785 1
Formerly 1
Shot 1
advertised 1
460 1
Text 1
ridges 1
Promise 1
Dev 1
exclusion 1
NHS 1
tuberculosis 1
rockets 1
##offs 1
sparkling 1
256 1
disappears 1
mankind 1
##hore 1
HP 1
##omo 1
taxation 1
Multi 1
DS 1
Virgil 1
##ams 1
Dell 1
stacked 1
guessing 1
Jump 1
Nope 1
cheer 1
hates 1
ballots 1
overlooked 1
analyses 1
Prevention 1
maturity 1
dos 1
##cards 1
##lect 1
Mare 1
##yssa 1
Petty 1
##wning 1
differing 1
iOS 1
##ior 1
Joachim 1
Sentinel 1
##nstein 1
90s 1
Pamela 1
480 1
Asher 1
##lary 1
Vicente 1
landings 1
portray 1
##rda 1
##xley 1
Virtual 1
##uary 1
finances 1
Jain 1
Somebody 1
Tri 1
behave 1
Michele 1
##ider 1
dwellings 1
FAA 1
Gallagher 1
##lide 1
Monkey 1
195 1
aforementioned 1
##rism 1
##bey 1
##kim 1
##puted 1
Mesa 1
hopped 1
unopposed 1
recipients 1
Reality 1
Been 1
gritted 1
149 1
playground 1
pillar 1
##rone 1
Guinness 1
##tad 1
Théâtre 1
depended 1
Tipperary 1
Reuben 1
frightening 1
wooded 1
Target 1
globally 1
##uted 1
Morales 1
Baptiste 1
drunken 1
Institut 1
characterised 1
##chemistry 1
Strip 1
discrete 1
Premiership 1
##zzling 1
gazing 1
Outer 1
##quisition 1
Sikh 1
Booker 1
##yal 1
contemporaries 1
Jericho 1
##chan 1
##physical 1
##witch 1
Militia 1
##rez 1
##zard 1
dangers 1
##utter 1
##₀ 1
Programs 1
darling 1
participates 1
railroads 1
##ienne 1
behavioral 1
bureau 1
##rook 1
161 1
Hicks 1
##rises 1
Comes 1
inflicted 1
bees 1
kindness 1
norm 1
##ković 1
generators 1
##pard 1
##omy 1
##ili 1
methodology 1
Alvin 1
façade 1
latitude 1
##plified 1
DE 1
Morse 1
##mered 1
educate 1
intersects 1
##MF 1
##cz 1
##vated 1
AL 1
##graded 1
##fill 1
constitutes 1
artery 1
feudal 1
avant 1
cautious 1
##ogue 1
immigrated 1
##chenko 1
Saul 1
Clinic 1
Fang 1
choke 1
Cornelius 1
flexibility 1
temperate 1
pins 1
##erson 1
oddly 1
inequality 1
157 1
Natasha 1
Sal 1
##uter 1
215 1
aft 1
blinking 1
##ntino 1
northward 1
Exposition 1
cookies 1
Wedding 1
impulse 1
Overseas 1
terrifying 1
##ough 1
Mortimer 1
##see 1
440 1
https 1
og 1
imagining 1
##cars 1
Nicola 1
exceptionally 1
threads 1
##cup 1
Oswald 1
Provisional 1
dismantled 1
deserves 1
1786 1
Fairy 1
discourse 1
Counsel 1
departing 1
Arc 1
guarding 1
##orse 1
420 1
alterations 1
vibrant 1
Em 1
squinted 1
terrace 1
rowing 1
Led 1
accessories 1
SF 1
Sgt 1
cheating 1
Atomic 1
##raj 1
Blackpool 1
##iary 1
boarded 1
substituted 1
bestowed 1
lime 1
kernel 1
##jah 1
Belmont 1
shaken 1
sticky 1
retrospective 1
Louie 1
migrants 1
weigh 1
sunglasses 1
thumbs 1
##hoff 1
excavation 1
##nks 1
Extra 1
Polo 1
motives 1
Drum 1
infrared 1
tastes 1
berth 1
verge 1
##stand 1
programmed 1
warmed 1
Shankar 1
Titan 1
chromosome 1
cafeteria 1
dividing 1
pepper 1
CPU 1
Stevie 1
satirical 1
Nagar 1
scowled 1
Died 1
backyard 1
##gata 1
##reath 1
##bir 1
Governors 1
portraying 1
##yah 1
Revenge 1
##acing 1
1772 1
margins 1
Bahn 1
OH 1
lowland 1
##razed 1
catcher 1
replay 1
##yoshi 1
Seriously 1
##licit 1
Aristotle 1
##ald 1
Habsburg 1
weekday 1
Secretariat 1
CO 1
##dly 1
##joy 1
##stad 1
litre 1
ultra 1
##cke 1
Mongol 1
Tucson 1
correlation 1
compose 1
traps 1
Groups 1
Hai 1
Salvatore 1
##dea 1
cents 1
##eese 1
concession 1
clash 1
Trip 1
Panzer 1
Moroccan 1
cruisers 1
torque 1
Ba 1
grossed 1
##arate 1
restriction 1
concentrating 1
FDA 1
##Leod 1
##ones 1
Scholars 1
##esi 1
throbbing 1
specialised 1
##heses 1
Chicken 1
##fia 1
##ificant 1
Erich 1
Residence 1
##trate 1
manipulation 1
namesake 1
##tom 1
Hoover 1
cue 1
Lindsey 1
Lonely 1
275 1
##HT 1
combustion 1
subscribers 1
Punjabi 1
respects 1
Jeremiah 1
penned 1
##gor 1
##rilla 1
suppression 1
##tration 1
Crimson 1
piston 1
Derry 1
crimson 1
lyrical 1
oversee 1
portrays 1
CF 1
Districts 1
Lenin 1
Cora 1
searches 1
clans 1
VHS 1
##hel 1
Jacqueline 1
Redskins 1
Clubs 1
desktop 1
indirectly 1
alternatives 1
marijuana 1
suffrage 1
##smos 1
Irwin 1
##liff 1
Process 1
##hawks 1
Sloane 1
##bson 1
Sonata 1
yielded 1
Flores 1
##ares 1
armament 1
adaptations 1
integrate 1
neighbours 1
shelters 1
##tour 1
Skinner 1
##jet 1
##tations 1
1774 1
Peterborough 1
##elles 1
ripping 1
Liang 1
Dickinson 1
charities 1
Rwanda 1
monasteries 1
crossover 1
racist 1
barked 1
guerrilla 1
##ivate 1
Grayson 1
##iques 1
##vious 1
##got 1
Rolls 1
denominations 1
atom 1
affinity 1
##delity 1
Wish 1
##inted 1
##inae 1
interrogation 1
##cey 1
##erina 1
##lifting 1
192 1
Sands 1
1779 1
mast 1
Likewise 1
##hyl 1
##oft 1
contempt 1
##por 1
assaulted 1
fills 1
establishments 1
Mal 1
consulted 1
##omi 1
##sight 1
greet 1
##roma 1
##egan 1
Pulitzer 1
##rried 1
##dius 1
##ractical 1
##voked 1
Hasan 1
CB 1
##zzy 1
Romanesque 1
Panic 1
wheeled 1
recorder 1
##tters 1
##warm 1
##gly 1
botanist 1
Balkan 1
Lockheed 1
Polly 1
farewell 1
suffers 1
purchases 1
Eaton 1
##80 1
Quick 1
commenting 1
Saga 1
beasts 1
hides 1
motifs 1
##icks 1
Alonso 1
Springer 1
Wikipedia 1
circulated 1
encoding 1
jurisdictions 1
snout 1
UAE 1
Integrated 1
unmarried 1
Heinz 1
##lein 1
##figured 1
deleted 1
##tley 1
Zen 1
Cycling 1
Fuel 1
Scandinavian 1
##rants 1
Conner 1
reef 1
Marino 1
curiously 1
lingered 1
Gina 1
manners 1
activism 1
Mines 1
Expo 1
Micah 1
promotions 1
Server 1
booked 1
derivatives 1
eastward 1
detailing 1
reelection 1
##chase 1
182 1
Campeonato 1
Po 1
158 1
Peel 1
winger 1
##itch 1
canyon 1
##pit 1
LDS 1
A1 1
##shin 1
Giorgio 1
pathetic 1
##rga 1
##mist 1
Aren 1
##lag 1
confronts 1
motel 1
textbook 1
shine 1
turbines 1
1770 1
Darcy 1
##cot 1
Southeastern 1
##lessness 1
Banner 1
recognise 1
stray 1
Kitchen 1
paperwork 1
realism 1
Chrysler 1
filmmakers 1
fishermen 1
##hetic 1
variously 1
Vishnu 1
fiddle 1
Eddy 1
Origin 1
##tec 1
##ulin 1
Flames 1
Rs 1
bankrupt 1
Extreme 1
Pomeranian 1
##emption 1
ratified 1
##iu 1
jockey 1
Stratford 1
##ivating 1
##oire 1
Babylon 1
pardon 1
AI 1
affordable 1
deities 1
disturbance 1
Trying 1
##sai 1
Ida 1
Papers 1
advancement 1
70s 1
archbishop 1
Luftwaffe 1
announces 1
tugging 1
##lphin 1
##sistence 1
##eel 1
##ishes 1
ambition 1
aura 1
##fled 1
##lected 1
##vue 1
Prasad 1
boiled 1
clarity 1
Violin 1
investigative 1
routing 1
Yankee 1
##uckle 1
McMahon 1
bugs 1
eruption 1
##rooms 1
Minutes 1
relics 1
##ckle 1
##nse 1
sipped 1
valves 1
weakly 1
##ital 1
Middleton 1
collided 1
##quer 1
bamboo 1
insignia 1
Tyne 1
exercised 1
Ninth 1
echoing 1
polynomial 1
considerations 1
lunged 1
##bius 1
objections 1
complain 1
disguised 1
plaza 1
##VC 1
institutes 1
Judicial 1
ascent 1
imminent 1
Waterford 1
hello 1
Lumpur 1
Niger 1
Goldman 1
vendors 1
Kensington 1
Wren 1
browser 1
##bner 1
##tri 1
##mize 1
##pis 1
##lea 1
Cheyenne 1
Bold 1
Settlement 1
Hollow 1
Paralympic 1
axle 1
##toire 1
##actic 1
impose 1
perched 1
utilizing 1
slips 1
Benz 1
Michaels 1
manipulate 1
Chiang 1
##mian 1
Dolphins 1
prohibition 1
attacker 1
ecology 1
Estadio 1
##SB 1
##uild 1
attracts 1
recalls 1
glacier 1
lad 1
##rima 1
Barlow 1
kHz 1
melodic 1
##aby 1
##iracy 1
assumptions 1
Cornish 1
##aru 1
DOS 1
Maddie 1
##mers 1
lyric 1
Luton 1
nm 1
##tron 1
Reno 1
Fin 1
YOU 1
Broadcast 1
Finch 1
sensory 1
##bent 1
Jeep 1
##uman 1
additionally 1
Buildings 1
businessmen 1
treaties 1
235 1
Stranger 1
gateway 1
Charlton 1
accomplishments 1
Diary 1
apologized 1
zinc 1
histories 1
supplier 1
##tting 1
162 1
asphalt 1
Treatment 1
Abbas 1
##pating 1
##yres 1
Bloom 1
sedan 1
soloist 1
##cum 1
antagonist 1
denounced 1
Fairfax 1
##aving 1
##enko 1
noticeable 1
Budget 1
Buckingham 1
Snyder 1
retreating 1
Jai 1
spoon 1
invading 1
giggle 1
woven 1
gunfire 1
arrests 1
##vered 1
##come 1
respiratory 1
violet 1
##aws 1
Byrd 1
shocking 1
tenant 1
Jamaican 1
Ottomans 1
Seal 1
theirs 1
##isse 1
##48 1
cooperate 1
peering 1
##nius 1
163 1
Composer 1
organist 1
Mongolian 1
Bauer 1
Spy 1
collects 1
prophecy 1
congregations 1
##moor 1
Brick 1
calculation 1
fixtures 1
exempt 1
##dden 1
Ada 1
Thousand 1
##lue 1
tracing 1
##achi 1
bodyguard 1
vicar 1
supplying 1
Łódź 1
interception 1
monitored 1
##heart 1
Paso 1
overlap 1
annoyance 1
##dice 1
yellowish 1
stables 1
elders 1
illegally 1
honesty 1
##oar 1
skinny 1
spinal 1
##puram 1
Bourbon 1
##cor 1
flourished 1
Medium 1
##stics 1
##aba 1
Follow 1
##ckey 1
stationary 1
##scription 1
dresser 1
scrutiny 1
Buckley 1
Clearly 1
##SF 1
Lyrics 1
##heimer 1
drying 1
Oracle 1
internally 1
rains 1
##last 1
Enemy 1
##oes 1
McLean 1
Ole 1
phosphate 1
Rosario 1
Rifles 1
##mium 1
battered 1
Pepper 1
Presidents 1
conquer 1
Château 1
castles 1
##aldo 1
##ulf 1
Depending 1
Lesser 1
Boom 1
trades 1
Peyton 1
164 1
emphasize 1
accustomed 1
SM 1
Ai 1
Classification 1
##mins 1
##35 1
##rons 1
leak 1
piled 1
deeds 1
lush 1
##self 1
beginnings 1
breathless 1
1660 1
McGill 1
##ago 1
##chaft 1
##gies 1
humour 1
Bomb 1
securities 1
Might 1
##zone 1
##eves 1
Matthias 1
Movies 1
Levine 1
vengeance 1
##ads 1
Challenger 1
Misty 1
Traditionally 1
constellation 1
##rass 1
deepest 1
workplace 1
##oof 1
##vina 1
impatient 1
##ML 1
Mughal 1
Alessandro 1
scenery 1
Slater 1
postseason 1
troupe 1
##ń 1
Volunteers 1
Facility 1
militants 1
Reggie 1
sanctions 1
Expeditionary 1
Nam 1
countered 1
interpret 1
Basilica 1
coding 1
expectation 1
Duffy 1
def 1
Tong 1
wakes 1
Bowling 1
Vehicle 1
Adler 1
salad 1
intricate 1
stronghold 1
medley 1
##uries 1
##bur 1
joints 1
##rac 1
##yx 1
##IO 1
Ordnance 1
Welch 1
distributor 1
Ark 1
cavern 1
trench 1
Weiss 1
Mauritius 1
decreases 1
docks 1
eagerly 1
irritation 1
Matilda 1
biographer 1
Visiting 1
##marked 1
##iter 1
##ear 1
##gong 1
Moreno 1
attendant 1
Bury 1
instrumentation 1
theologian 1
clit 1
nuns 1
symphony 1
translate 1
375 1
loser 1
##user 1
##VR 1
##meter 1
##orious 1
harmful 1
##yuki 1
Commissioners 1
Mendoza 1
sniffed 1
Hulk 1
##dded 1
##ulator 1
##nz 1
Donnell 1
##eka 1
deported 1
Met 1
SD 1
Aerospace 1
##cultural 1
##odes 1
Fantastic 1
cavity 1
remark 1
emblem 1
fearing 1
##iance 1
ICAO 1
Liberia 1
stab 1
##yd 1
Pac 1
Gymnasium 1
IS 1
Everton 1
##vanna 1
mantle 1
##ief 1
Ramon 1
##genic 1
Shooting 1
Smoke 1
Random 1
Africans 1
MB 1
tavern 1
bargain 1
voluntarily 1
Ion 1
Peoples 1
Rusty 1
attackers 1
Patton 1
sins 1
##cake 1
Hat 1
moderately 1
##hala 1
##alia 1
requesting 1
mechanic 1
##eae 1
Seine 1
Robbins 1
##ulum 1
susceptible 1
Bravo 1
Slade 1
Strasbourg 1
rubble 1
entrusted 1
Creation 1
##amp 1
smoothed 1
##uintet 1
evenly 1
reviewers 1
skip 1
Sculpture 1
177 1
Rough 1
##rrie 1
Reeves 1
##cede 1
Administrator 1
garde 1
minus 1
carriages 1
grenade 1
Ninja 1
fuscous 1
##kley 1
Punk 1
contributors 1
Aragon 1
Tottenham 1
##cca 1
##sir 1
VA 1
laced 1
dealers 1
##sonic 1
crisp 1
harmonica 1
Artistic 1
Butch 1
Andes 1
Farmers 1
corridors 1
unseen 1
##tium 1
Countries 1
Lone 1
envisioned 1
Katy 1
##lang 1
##cc 1
Quarterly 1
##neck 1
consort 1
##aceae 1
bidding 1
Corey 1
concurrent 1
##acts 1
##gum 1
Highness 1
##lient 1
##rators 1
arising 1
##unta 1
pathways 1
49ers 1
bolted 1
complaining 1
ecosystem 1
libretto 1
Ser 1
narrated 1
212 1
Soft 1
influx 1
##dder 1
incorporation 1
plagued 1
tents 1
##ddled 1
1750 1
Risk 1
citation 1
Tomas 1
hostilities 1
seals 1
Bruins 1
Dominique 1
attic 1
competent 1
##UR 1
##cci 1
hugging 1
Breuning 1
bacterial 1
Shrewsbury 1
vowed 1
eh 1
elongated 1
hangs 1
render 1
centimeters 1
##ficient 1
Mu 1
turtle 1
besieged 1
##gaard 1
grapes 1
bravery 1
collaborations 1
deprived 1
##amine 1
##using 1
##gins 1
arid 1
##uve 1
coats 1
hanged 1
##sting 1
Pa 1
prefix 1
##ranged 1
Exit 1
Chain 1
Flood 1
Materials 1
suspicions 1
##ö 1
hovered 1
Hidden 1
##state 1
Malawi 1
##24 1
Mandy 1
norms 1
fascinating 1
airlines 1
delivers 1
##rust 1
Cretaceous 1
spanned 1
pillows 1
##onomy 1
jar 1
##kka 1
regent 1
fireworks 1
morality 1
discomfort 1
lure 1
uneven 1
##jack 1
Lucian 1
171 1
archaeology 1
##til 1
mornings 1
Billie 1
Marquess 1
impending 1
spilling 1
tombs 1
##volved 1
Celia 1
Coke 1
underside 1
##bation 1
Vaughn 1
Daytona 1
Godfrey 1
Pascal 1
Alien 1
##sign 1
172 1
##lage 1
iPhone 1
Gonna 1
genocide 1
##rber 1
oven 1
endure 1
dashed 1
simultaneous 1
##phism 1
Wally 1
##rō 1
ants 1
predator 1
reissue 1
##aper 1
Speech 1
funk 1
Rudy 1
claw 1
Hindus 1
Numbers 1
Bing 1
lantern 1
##aurus 1
scattering 1
poisoned 1
##active 1
Andrei 1
algebraic 1
baseman 1
##ritz 1
Gregg 1
##cola 1
selections 1
##putation 1
lick 1
Laguna 1
##IX 1
Sumatra 1
Warning 1
turf 1
buyers 1
Burgess 1
Oldham 1
exploit 1
worm 1
initiate 1
strapped 1
tuning 1
filters 1
haze 1
##е 1
##ledge 1
##ydro 1
##culture 1
amendments 1
Promotion 1
##union 1
Clair 1
##uria 1
petty 1
shutting 1
##eveloped 1
Phoebe 1
Zeke 1
conducts 1
grains 1
clashes 1
##latter 1
illegitimate 1
willingly 1
Deer 1
Lakers 1
Reference 1
chaplain 1
commitments 1
interrupt 1
salvation 1
Panther 1
Qualifying 1
Assessment 1
cancel 1
efficiently 1
attorneys 1
Dynamo 1
impress 1
accession 1
clinging 1
randomly 1
reviewing 1
Romero 1
Cathy 1
charting 1
clapped 1
rebranded 1
Azerbaijani 1
coma 1
indicator 1
punches 1
##tons 1
Sami 1
monastic 1
prospects 1
Pastor 1
##rville 1
electrified 1
##CI 1
##utical 1
tumbled 1
Chef 1
muzzle 1
selecting 1
UP 1
Wheel 1
protocols 1
##tat 1
Extended 1
beautifully 1
nests 1
##stal 1
Andersen 1
##anu 1
##³ 1
##rini 1
kneeling 1
##reis 1
##xia 1
anatomy 1
dusty 1
Safe 1
turmoil 1
Bianca 1
##elo 1
analyze 1
##ر 1
##eran 1
podcast 1
Slovene 1
Locke 1
Rue 1
##retta 1
##uni 1
Person 1
Prophet 1
crooked 1
disagreed 1
Versailles 1
Sarajevo 1
Utrecht 1
##ogen 1
chewing 1
##ception 1
##iidae 1
Missile 1
attribute 1
majors 1
Arch 1
intellectuals 1
##andra 1
ideological 1
Cory 1
Salzburg 1
##fair 1
Lot 1
electromagnetic 1
Distribution 1
##oper 1
##pered 1
Russ 1
Terra 1
repeats 1
fluttered 1
Riga 1
##ific 1
##gt 1
cows 1
Hair 1
labelled 1
protects 1
Gale 1
Personnel 1
Düsseldorf 1
Moran 1
rematch 1
##OE 1
Slow 1
forgiveness 1
##ssi 1
proudly 1
Macmillan 1
insist 1
undoubtedly 1
Québec 1
Violence 1
##yuan 1
##aine 1
mourning 1
linen 1
accidental 1
##iol 1
##arium 1
grossing 1
lattice 1
maneuver 1
##marine 1
prestige 1
petrol 1
gradient 1
invasive 1
militant 1
Galerie 1
widening 1
##aman 1
##quist 1
disagreement 1
##ales 1
creepy 1
remembers 1
buzz 1
##erial 1
Exempt 1
Dirk 1
mon 1
Addison 1
##inen 1
deposed 1
##agon 1
fifteenth 1
Hang 1
ornate 1
slab 1
##lades 1
Fountain 1
contractors 1
das 1
Warwickshire 1
1763 1
##rc 1
Carly 1
Essays 1
Indy 1
Ligue 1
greenhouse 1
slit 1
##sea 1
chewed 1
wink 1
##azi 1
Playhouse 1
##kon 1
Gram 1
Ko 1
Samson 1
creators 1
revive 1
##rians 1
spawned 1
seminars 1
Craft 1
Tall 1
diverted 1
assistants 1
computational 1
enclosure 1
##acity 1
Coca 1
##eve 1
databases 1
Drop 1
##loading 1
##hage 1
Greco 1
Privy 1
entrances 1
pork 1
prospective 1
Memories 1
robes 1
##market 1
transporting 1
##lik 1
Rudolph 1
Horton 1
visually 1
##uay 1
##nja 1
Centro 1
Tor 1
Howell 1
##rsey 1
admitting 1
postgraduate 1
herbs 1
##att 1
Chin 1
Rutherford 1
##bot 1
##etta 1
Seasons 1
explanations 1
##bery 1
Friedman 1
heap 1
##ryl 1
##sberg 1
jaws 1
##agh 1
Choi 1
Killing 1
Fanny 1
##suming 1
##hawk 1
hopeful 1
##aid 1
Monty 1
gum 1
remarkably 1
Secrets 1
disco 1
harp 1
advise 1
##avia 1
Marathi 1
##cycle 1
Truck 1
abbot 1
sincere 1
urine 1
##mology 1
masked 1
bathing 1
##tun 1
Fellows 1
##TM 1
##gnetic 1
owl 1
##jon 1
hymn 1
##leton 1
208 1
hostility 1
##cée 1
baked 1
Bottom 1
##AB 1
shudder 1
##ater 1
##von 1
##hee 1
reorganization 1
Cycle 1
##phs 1
Lex 1
##style 1
##rms 1
Translation 1
##erick 1
##imeter 1
##ière 1
attested 1
Hillary 1
##DM 1
gal 1
wander 1
Salle 1
##laming 1
Perez 1
Pit 1
##LP 1
USAF 1
contexts 1
Disease 1
blazing 1
aroused 1
razor 1
walled 1
Danielle 1
Mont 1
Funk 1
royalty 1
thee 1
203 1
donors 1
##erton 1
famously 1
processors 1
reassigned 1
welcoming 1
Goldberg 1
##quities 1
undisclosed 1
Orient 1
Patty 1
vaccine 1
refrigerator 1
Cypriot 1
consonant 1
##waters 1
176 1
sober 1
##lement 1
Racecourse 1
##uate 1
Luckily 1
Selection 1
conceptual 1
vines 1
Breaking 1
wa 1
lions 1
oversight 1
sheltered 1
Dancer 1
ponds 1
borrow 1
##BB 1
##pulsion 1
Daly 1
##eek 1
fertility 1
spontaneous 1
Worldwide 1
gasping 1
##tino 1
169 1
ABS 1
Vickers 1
ambient 1
energetic 1
prisons 1
##eson 1
Stacy 1
##roach 1
GmbH 1
Afro 1
Marin 1
farmhouse 1
pinched 1
##cursion 1
##sp 1
Sabine 1
##pire 1
181 1
nak 1
swelling 1
humble 1
perfume 1
##balls 1
Rai 1
cannons 1
##taker 1
Married 1
Maltese 1
canals 1
interceptions 1
hats 1
lever 1
slowing 1
##ppy 1
Nike 1
Silas 1
Scarborough 1
skirts 1
166 1
inauguration 1
Shuttle 1
alloy 1
beads 1
belts 1
Compton 1
Cause 1
battling 1
critique 1
surf 1
Dock 1
roommate 1
##ulet 1
invade 1
Garland 1
##slow 1
nutrition 1
persona 1
##zam 1
Wichita 1
acquaintance 1
coincided 1
##cate 1
Dracula 1
clamped 1
##gau 1
overhaul 1
##broken 1
##rrier 1
melodies 1
ventures 1
Paz 1
convex 1
Roots 1
##holding 1
Tribute 1
transgender 1
##ò 1
chimney 1
##riad 1
Ajax 1
Thereafter 1
messed 1
nowadays 1
pH 1
##100 1
##alog 1
Pomerania 1
##yra 1
Rossi 1
glove 1
##TL 1
Races 1
##asily 1
tablets 1
Jase 1
##ttes 1
diner 1
##rns 1
Hu 1
Mohan 1
anytime 1
weighted 1
remixes 1
Dove 1
cherry 1
imports 1
##urity 1
GA 1
##TT 1
##iated 1
##sford 1
Clarkson 1
evidently 1
rugged 1
Dust 1
siding 1
##ometer 1
acquitted 1
choral 1
##mite 1
infants 1
Domenico 1
gallons 1
Atkinson 1
gestures 1
slated 1
##xa 1
Archaeology 1
unwanted 1
##ibes 1
##duced 1
premise 1
Colby 1
Geelong 1
disqualified 1
##pf 1
##voking 1
simplicity 1
Walkover 1
Qaeda 1
Warden 1
##bourg 1
##ān 1
Invasion 1
Babe 1
harness 1
183 1
##tated 1
maze 1
Burt 1
bedrooms 1
##nsley 1
Horizon 1
##oast 1
minimize 1
peeked 1
MLA 1
Trains 1
tractor 1
nudged 1
##iform 1
Growth 1
Benton 1
separates 1
##about 1
##kari 1
buffer 1
anthropology 1
brigades 1
foil 1
##wu 1
Domain 1
licking 1
whore 1
##rage 1
##sham 1
Initial 1
Courthouse 1
Rutgers 1
dams 1
villains 1
supermarket 1
##brush 1
Brunei 1
Palermo 1
arises 1
Passenger 1
outreach 1
##gill 1
Labrador 1
McLaren 1
##uy 1
Lori 1
##fires 1
Heads 1
magistrate 1
¹⁄₂ 1
Weapons 1
##wai 1
##roke 1
projecting 1
##ulates 1
bordering 1
McKenzie 1
Pavel 1
midway 1
Guangzhou 1
streamed 1
racer 1
##lished 1
eccentric 1
spectral 1
206 1
##mism 1
Wilde 1
Grange 1
preparatory 1
lent 1
##tam 1
starving 1
Gertrude 1
##cea 1
##ricted 1
Breakfast 1
Mira 1
blurted 1
derive 1
##lair 1
blunt 1
sob 1
Cheltenham 1
Henrik 1
reinstated 1
intends 1
##istan 1
unite 1
##ector 1
playful 1
sparks 1
mapped 1
Cadet 1
luggage 1
prosperous 1
##ein 1
salon 1
##utes 1
Biological 1
##rland 1
Tyrone 1
buyer 1
##lose 1
amounted 1
Saw 1
smirked 1
Ronan 1
Reviews 1
Adele 1
trait 1
##proof 1
Bhutan 1
Ginger 1
##junct 1
digitally 1
stirring 1
##isted 1
coconut 1
Hamlet 1
Dinner 1
Scale 1
pledge 1
##RP 1
Wrong 1
Goal 1
Panel 1
therapeutic 1
elevations 1
infectious 1
priesthood 1
##inda 1
Guyana 1
diagnostic 1
##mbre 1
Blackwell 1
sails 1
##arm 1
literal 1
periodically 1
gleaming 1
Robot 1
Rector 1
##abulous 1
##tres 1
Reaching 1
Romantic 1
CP 1
Wonderful 1
##tur 1
ornamental 1
##nges 1
traitor 1
##zilla 1
genetics 1
mentioning 1
##eim 1
resonance 1
Areas 1
Shopping 1
##nard 1
Gail 1
Solid 1
##rito 1
##mara 1
Willem 1
Chip 1
Matches 1
Volkswagen 1
obstacle 1
Organ 1
invites 1
Coral 1
attain 1
##anus 1
##dates 1
Midway 1
shuffled 1
Cecilia 1
dessert 1
Gateway 1
Ch 1
Napoleonic 1
Petroleum 1
jets 1
goose 1
striped 1
bowls 1
vibration 1
Sims 1
nickel 1
Thirteen 1
problematic 1
intervene 1
##grading 1
##unds 1
Mum 1
semifinal 1
Radical 1
##izations 1
refurbished 1
##sation 1
##harine 1
Maximilian 1
cites 1
Advocate 1
Potomac 1
surged 1
preserves 1
Curry 1
angled 1
ordination 1
##pad 1
Cade 1
##DE 1
##sko 1
researched 1
torpedoes 1
Resident 1
wetlands 1
hay 1
applicants 1
depart 1
Bernstein 1
##pic 1
##ario 1
##rae 1
favourable 1
##wari 1
##р 1
metabolism 1
nobleman 1
Defaulted 1
calculate 1
ignition 1
Celebrity 1
Belize 1
sulfur 1
Flat 1
Sc 1
USB 1
flicker 1
Hertfordshire 1
Sept 1
CFL 1
Pasadena 1
Saturdays 1
Titus 1
##nir 1
Canary 1
Computing 1
Isaiah 1
##mler 1
formidable 1
pulp 1
orchid 1
Called 1
Solutions 1
kilograms 1
steamer 1
##hil 1
Doncaster 1
successors 1
Stokes 1
Holstein 1
##sius 1
sperm 1
API 1
Rogue 1
instability 1
Acoustic 1
##rag 1
159 1
undercover 1
Wouldn 1
##pra 1
##medical 1
Eliminated 1
honorable 1
##chel 1
denomination 1
abrupt 1
Buffy 1
blouse 1
fi 1
Regardless 1
Subsequent 1
##rdes 1
Lover 1
##tford 1
bacon 1
##emia 1
carving 1
##cripts 1
Massacre 1
Ramos 1
Latter 1
##ulp 1
ballroom 1
##gement 1
richest 1
bruises 1
Rest 1
Wiley 1
##aster 1
explosions 1
##lastic 1
Edo 1
##LD 1
Mir 1
choking 1
disgusted 1
faintly 1
Barracks 1
blasted 1
headlights 1
Tours 1
ensued 1
presentations 1
##cale 1
wrought 1
##oat 1
##coa 1
Quaker 1
##sdale 1
recipe 1
##gny 1
corpses 1
##liance 1
comfortably 1
##wat 1
Landscape 1
niche 1
catalyst 1
##leader 1
Securities 1
messy 1
##RL 1
Rodrigo 1
backdrop 1
##opping 1
treats 1
Emilio 1
Anand 1
bilateral 1
meadow 1
VC 1
socialism 1
##grad 1
clinics 1
##itating 1
##ppe 1
##ymphonic 1
seniors 1
Advisor 1
Armoured 1
Method 1
Alley 1
##orio 1
Sad 1
fueled 1
raided 1
Axel 1
NH 1
rushes 1
Dixie 1
Otis 1
wrecked 1
##22 1
capitalism 1
café 1
##bbe 1
##pion 1
##forcing 1
Aubrey 1
Lublin 1
Whenever 1
Sears 1
Scheme 1
##lana 1
Meadows 1
treatise 1
##RI 1
##ustic 1
sacrifices 1
sustainability 1
Biography 1
mystical 1
Wanted 1
multiplayer 1
Applications 1
disliked 1
##tisfied 1
impaired 1
empirical 1
forgetting 1
Fairfield 1
Sunni 1
blurred 1
Growing 1
Avalon 1
coil 1
Camera 1
Skin 1
bruised 1
terminals 1
##fted 1
##roving 1
Commando 1
##hya 1
##sper 1
reservations 1
needles 1
dangling 1
##rsch 1
##rsten 1
##spect 1
##mbs 1
yoga 1
regretted 1
Bliss 1
Orion 1
Rufus 1
glucose 1
Olsen 1
autobiographical 1
##dened 1
222 1
humidity 1
Shan 1
##ifiable 1
supper 1
##rou 1
flare 1
##MO 1
campaigning 1
descend 1
socio 1
declares 1
Mounted 1
Gracie 1
Arte 1
endurance 1
##ety 1
Copper 1
costa 1
airplay 1
##MB 1
Proceedings 1
dislike 1
grimaced 1
occupants 1
births 1
glacial 1
oblivious 1
cans 1
installment 1
muddy 1
##ł 1
captains 1
pneumonia 1
Quiet 1
Sloan 1
Excuse 1
##nine 1
Geography 1
gymnastics 1
multimedia 1
drains 1
Anthology 1
Gear 1
cylindrical 1
Fry 1
undertaking 1
##pler 1
##tility 1
Nan 1
##recht 1
Dub 1
philosophers 1
piss 1
Atari 1
##pha 1
Galicia 1
México 1
##nking 1
Continuing 1
bump 1
graveyard 1
persisted 1
Shrine 1
##erapy 1
defects 1
Advance 1
Bomber 1
##oil 1
##ffling 1
cheerful 1
##lix 1
scrub 1
##eto 1
awkwardly 1
collaborator 1
fencing 1
##alo 1
prophet 1
Croix 1
coughed 1
##lication 1
roadway 1
slaughter 1
elephants 1
##erated 1
Simpsons 1
vulnerability 1
ivory 1
Birth 1
lizard 1
scarce 1
cylinders 1
fortunes 1
##NL 1
Hate 1
Priory 1
##lai 1
McBride 1
##copy 1
Lenny 1
liaison 1
Triangle 1
coronation 1
sampled 1
savage 1
amidst 1
Grady 1
whatsoever 1
instinctively 1
Reconstruction 1
insides 1
seizure 1
Drawing 1
##rlin 1
Antioch 1
Gao 1
Díaz 1
1760 1
Sparks 1
##tien 1
##bidae 1
rehearsal 1
##bbs 1
botanical 1
##hers 1
compensate 1
wholesale 1
Seville 1
shareholder 1
prediction 1
astronomical 1
Reddy 1
hardest 1
circling 1
whereabouts 1
termination 1
Rep 1
Assistance 1
Dramatic 1
Herb 1
##ghter 1
climbs 1
188 1
Poole 1
301 1
##pable 1
wit 1
##istice 1
Walters 1
relying 1
Jakob 1
##redo 1
proceeding 1
Langley 1
affiliates 1
ou 1
##allo 1
##holm 1
Samsung 1
##ishi 1
Missing 1
Xi 1
vertices 1
Claus 1
foam 1
restless 1
##uating 1
##sso 1
##ttering 1
Philips 1
delta 1
bombed 1
Catalogue 1
coaster 1
Ling 1
Willard 1
satire 1
410 1
Composition 1
Net 1
Orioles 1
##ldon 1
fins 1
Palatinate 1
Woodward 1
tease 1
tilt 1
brightness 1
##70 1
##bbling 1
##loss 1
##dhi 1
##uilt 1
Whoever 1
##yers 1
hitter 1
Elton 1
Extension 1
ace 1
Affair 1
restructuring 1
##loping 1
Paterson 1
hi 1
##rya 1
spouse 1
Shay 1
Himself 1
piles 1
preaching 1
##gical 1
bikes 1
Brave 1
expulsion 1
Mirza 1
stride 1
Trees 1
commemorated 1
famine 1
masonry 1
Selena 1
Watt 1
Banking 1
Rancho 1
Stockton 1
dip 1
tattoos 1
Vlad 1
acquainted 1
Flyers 1
ruthless 1
fourteenth 1
illustrate 1
##akes 1
EPA 1
##rows 1
##uiz 1
bumped 1
Designed 1
Leaders 1
mastered 1
Manfred 1
swirled 1
McCain 1
##rout 1
Artemis 1
rabbi 1
flinched 1
upgrades 1
penetrate 1
shipyard 1
transforming 1
caretaker 1
##eiro 1
Maureen 1
tightening 1
##founded 1
RAM 1
##icular 1
##mper 1
##rung 1
Fifteen 1
exploited 1
consistency 1
interstate 1
##ynn 1
Bridget 1
contamination 1
Mistress 1
##rup 1
coating 1
##FP 1
##jective 1
Libyan 1
211 1
Gemma 1
dependence 1
shrubs 1
##ggled 1
Germain 1
retaliation 1
traction 1
##PP 1
Dangerous 1
terminology 1
psychiatrist 1
##garten 1
hurdles 1
Natal 1
wasting 1
Weir 1
revolves 1
stripe 1
##reased 1
preferences 1
##entation 1
##lde 1
##áil 1
##otherapy 1
Flame 1
##ologies 1
viruses 1
Label 1
Pandora 1
veil 1
##ogical 1
Coliseum 1
Cottage 1
creeping 1
Jong 1
lectured 1
##çaise 1
shoreline 1
##fference 1
##hra 1
Shade 1
Clock 1
Faye 1
bilingual 1
Humboldt 1
Operating 1
##fter 1
##was 1
algae 1
towed 1
amphibious 1
Parma 1
impacted 1
smacked 1
Piedmont 1
Monsters 1
##omb 1
Moor 1
##lberg 1
sinister 1
Postal 1
178 1
Drummond 1
Sign 1
textbooks 1
hazardous 1
Brass 1
Rosemary 1
Pick 1
Sit 1
Architect 1
transverse 1
Centennial 1
confess 1
polling 1
##aia 1
Julien 1
##mand 1
consolidation 1
Ethel 1
##ulse 1
severity 1
Yorker 1
choreographer 1
1840s 1
##ltry 1
softer 1
versa 1
##geny 1
##quila 1
##jō 1
Caledonia 1
Friendship 1
Visa 1
rogue 1
##zzle 1
bait 1
feather 1
incidence 1
Foods 1
Ships 1
##uto 1
##stead 1
arousal 1
##rote 1
Hazel 1
##bolic 1
Swing 1
##ej 1
##cule 1
##jana 1
##metry 1
##uity 1
Valuable 1
##ₙ 1
Shropshire 1
##nect 1
365 1
Ones 1
realise 1
Café 1
Albuquerque 1
##grown 1
##stadt 1
209 1
##ᵢ 1
prefers 1
withstand 1
Lillian 1
MacArthur 1
Hara 1
##fulness 1
domination 1
##VO 1
##school 1
Freddy 1
ethnicity 1
##while 1
adorned 1
hormone 1
Calder 1
Domestic 1
Freud 1
Shields 1
##phus 1
##rgan 1
BP 1
Segunda 1
Mustang 1
##GI 1
Bonn 1
patiently 1
remarried 1
##umbria 1
Crete 1
Elephant 1
Nuremberg 1
tolerate 1
Tyson 1
##evich 1
Programming 1
##lander 1
Bethlehem 1
segregation 1
Constituency 1
quarterly 1
blushed 1
photographers 1
Sheldon 1
porcelain 1
Blanche 1
goddamn 1
lively 1
##fused 1
bumps 1
##eli 1
curated 1
coherent 1
provoked 1
##vet 1
Madeleine 1
##isco 1
rainy 1
Bethel 1
accusation 1
ponytail 1
gag 1
##lington 1
quicker 1
scroll 1
##vate 1
Bow 1
Gender 1
Ira 1
crashes 1
ACT 1
Maintenance 1
##aton 1
##ieu 1
bitterly 1
strains 1
rattled 1
vectors 1
##arina 1
##ishly 1
173 1
parole 1
##nx 1
amusing 1
Gonzalez 1
##erative 1
Caucus 1
sensual 1
Penelope 1
coefficient 1
Mateo 1
##mani 1
proposition 1
Duty 1
lacrosse 1
proportions 1
Plato 1
profiles 1
Botswana 1
Brandt 1
reins 1
mandolin 1
encompassing 1
##gens 1
Kahn 1
prop 1
summon 1
##MR 1
##yrian 1
##zaki 1
Falling 1
conditional 1
thy 1
##bao 1
##ych 1
radioactive 1
##nics 1
Newspaper 1
##people 1
##nded 1
Gaming 1
sunny 1
##look 1
Sherwood 1
crafted 1
NJ 1
awoke 1
187 1
timeline 1
giants 1
possessing 1
##ycle 1
Cheryl 1
ng 1
Ruiz 1
polymer 1
potassium 1
Ramsay 1
relocation 1
##leen 1
Sociology 1
##bana 1
Franciscan 1
propulsion 1
denote 1
##erjee 1
registers 1
headline 1
Tests 1
emerges 1
Articles 1
Mint 1
livery 1
breakup 1
kits 1
Rap 1
Browning 1
Bunny 1
##mington 1
##watch 1
Anastasia 1
Zachary 1
arranging 1
biographical 1
Erica 1
Nippon 1
##membrance 1
Carmel 1
##sport 1
##xes 1
Paddy 1
##holes 1
Issues 1
Spears 1
compliment 1
##stro 1
##graphs 1
Castillo 1
##MU 1
##space 1
Corporal 1
##nent 1
174 1
Gentlemen 1
##ilize 1
##vage 1
convinces 1
Carmine 1
Crash 1
##hashi 1
Files 1
Doctors 1
brownish 1
sweating 1
goats 1
##conductor 1
rendition 1
##bt 1
NL 1
##spiration 1
generates 1
##cans 1
obsession 1
##noy 1
Danger 1
Diaz 1
heats 1
Realm 1
priorities 1
##phon 1
1300 1
initiation 1
pagan 1
bursts 1
archipelago 1
chloride 1
Screenplay 1
Hewitt 1
Khmer 1
bang 1
judgement 1
negotiating 1
##ait 1
Mabel 1
densely 1
Boulder 1
knob 1
430 1
Alfredo 1
##kt 1
pitches 1
##ées 1
##ان 1
Macdonald 1
##llum 1
imply 1
##mot 1
Smile 1
spherical 1
##tura 1
Derrick 1
Kelley 1
Nico 1
cortex 1
launches 1
differed 1
parallels 1
Navigation 1
##child 1
##rming 1
canoe 1
forestry 1
reinforce 1
##mote 1
confirming 1
tasting 1
scaled 1
##resh 1
##eting 1
Understanding 1
prevailing 1
Pearce 1
CW 1
earnest 1
Gaius 1
asserts 1
denoted 1
landmarks 1
Chargers 1
warns 1
##flies 1
Judges 1
jagged 1
##dain 1
tails 1
Historian 1
Millie 1
##sler 1
221 1
##uard 1
absurd 1
Dion 1
##ially 1
makeshift 1
Specifically 1
ignorance 1
Eat 1
##ieri 1
comparisons 1
forensic 1
186 1
Giro 1
skeptical 1
disciplinary 1
battleship 1
##45 1
Libby 1
520 1
Odyssey 1
ledge 1
##post 1
Eternal 1
Missionary 1
deficiency 1
settler 1
wonders 1
##gai 1
raging 1
##cis 1
Romney 1
Ulrich 1
annexation 1
boxers 1
sect 1
204 1
ARIA 1
dei 1
Hitchcock 1
te 1
Varsity 1
##fic 1
CC 1
lending 1
##nial 1
##tag 1
##rdy 1
##obe 1
Defensive 1
##dson 1
##pore 1
stellar 1
Lam 1
Trials 1
contention 1
Sung 1
##uminous 1
Poe 1
superiority 1
##plicate 1
325 1
bitten 1
conspicuous 1
##olly 1
Lila 1
Pub 1
Petit 1
distorted 1
ISIL 1
distinctly 1
##family 1
Cowboy 1
mutant 1
##cats 1
##week 1
Changes 1
Sinatra 1
epithet 1
neglect 1
Innocent 1
gamma 1
thrill 1
reggae 1
##adia 1
##ational 1
##due 1
landlord 1
##leaf 1
visibly 1
##ì 1
Darlington 1
Gomez 1
##iting 1
scarf 1
##lade 1
Hinduism 1
Fever 1
scouts 1
##roi 1
convened 1
##oki 1
184 1
Lao 1
boycott 1
unemployed 1
##lore 1
##ß 1
##hammer 1
Curran 1
disciples 1
odor 1
##ygiene 1
Lighthouse 1
Played 1
whales 1
discretion 1
Yves 1
##ceived 1
pauses 1
coincide 1
##nji 1
dizzy 1
##scopic 1
routed 1
Guardians 1
Kellan 1
carnival 1
nasal 1
224 1
##awed 1
Mitsubishi 1
640 1
Cast 1
silky 1
Projects 1
joked 1
Huddersfield 1
Rothschild 1
zu 1
##olar 1
Divisions 1
mildly 1
##eni 1
##lge 1
Appalachian 1
Sahara 1
pinch 1
##roon 1
wardrobe 1
##dham 1
##etal 1
Bubba 1
##lini 1
##rumbling 1
Communities 1
Poznań 1
unification 1
Beau 1
Kris 1
SV 1
Rowing 1
Minh 1
reconciliation 1
##saki 1
##sor 1
taped 1
##reck 1
certificates 1
gubernatorial 1
rainbow 1
##uing 1
litter 1
##lique 1
##oted 1
Butterfly 1
benefited 1
Images 1
induce 1
Balkans 1
Velvet 1
##90 1
##xon 1
Bowman 1
##breaker 1
penis 1
##nitz 1
##oint 1
##otive 1
crust 1
##pps 1
organizers 1
Outdoor 1
nominees 1
##rika 1
TX 1
##ucks 1
Protestants 1
##imation 1
appetite 1
Baja 1
awaited 1
##points 1
windshield 1
##igh 1
##zled 1
Brody 1
Buster 1
stylized 1
Bryce 1
##sz 1
Dollar 1
vest 1
mold 1
ounce 1
ok 1
receivers 1
##uza 1
Purdue 1
Harrington 1
Hodges 1
captures 1
##ggio 1
Reservation 1
##ssin 1
##tman 1
cosmic 1
straightforward 1
flipping 1
remixed 1
##athed 1
Gómez 1
Lim 1
motorcycles 1
economies 1
owning 1
Dani 1
##rosis 1
myths 1
sire 1
kindly 1
1768 1
Bean 1
graphs 1
##mee 1
##RO 1
##geon 1
puppy 1
Stephenson 1
notified 1
##jer 1
Watching 1
##rama 1
Sino 1
urgency 1
Islanders 1
##mash 1
Plata 1
fumble 1
##chev 1
##stance 1
##rack 1
##she 1
facilitated 1
swings 1
akin 1
enduring 1
payload 1
##phine 1
Deputies 1
murals 1
##tooth 1
610 1
Jays 1
eyeing 1
##quito 1
transparency 1
##cote 1
Timor 1
negatively 1
##isan 1
battled 1
##fected 1
thankful 1
Rage 1
hospitality 1
incorrectly 1
207 1
entrepreneurs 1
##cula 1
##wley 1
hedge 1
##cratic 1
Corpus 1
Odessa 1
Whereas 1
##ln 1
fetch 1
happier 1
Amherst 1
bullying 1
graceful 1
Height 1
Bartholomew 1
willingness 1
qualifier 1
191 1
Syed 1
Wesleyan 1
Layla 1
##rrence 1
Webber 1
##hum 1
Rat 1
##cket 1
##herence 1
Monterey 1
contaminated 1
Beside 1
Mustafa 1
Nana 1
213 1
##pruce 1
Reason 1
##spense 1
spike 1
##gé 1
AU 1
disciple 1
charcoal 1
##lean 1
formulated 1
Diesel 1
Mariners 1
accreditation 1
glossy 1
1800s 1
##ih 1
Mainz 1
unison 1
Marianne 1
shear 1
overseeing 1
vernacular 1
bowled 1
##lett 1
unpopular 1
##ckoned 1
##monia 1
Gaston 1
##TI 1
##oters 1
Cups 1
##bones 1
##ports 1
Museo 1
minors 1
1773 1
Dickens 1
##EL 1
##NBC 1
Presents 1
ambitions 1
axes 1
Río 1
Yukon 1
bedside 1
Ribbon 1
Units 1
faults 1
conceal 1
##lani 1
prevailed 1
214 1
Goodwin 1
Jaguar 1
crumpled 1
Cullen 1
Wireless 1
ceded 1
remotely 1
Bin 1
mocking 1
straps 1
ceramics 1
##avi 1
##uding 1
##ader 1
Taft 1
twenties 1
##aked 1
Problem 1
quasi 1
[...]
